01
00
10
01
00
10
01
00
10
01
00
10
01
00
10
01
00
10
01
00
10
01
00
10
01
00
10
01
00
10
01
00
10
01
00
10
01
00
10
01
00
10
01
00
10
01
00
10
01
00
10
01
00
10
01
00
10
01
00
10
01
00
10
01
00
10
01
00
10
01
00
10
01
00
10
01
00
10
01
00
10
01
00
10
01
00
10
01
00
10
01
00
10
01
00
10
01
00
10
01
00
10
01
00
10
01
00
10
01
00
10
01
00
10
01
00
10
01
00
10
01
00
10
01
00
10
01
00
10
01
00
10
01
00
10
01
00
10
01
00
10
01
00
10
01
00
10
01
00
10
01
00
10
01
00
10
01
00
10
01
00
10
01
00
10
01
00
10
01
00
10
01
00
10
01
00
10
01
00
10
01
00
10
01
00
10
01
00
10
01
00
10
01
00
10
01
00
10
01
00
10
01
00
10
01
00
10
01
00
10
01
00
10
01
00
10
01
00
10
01
00
10
01
00
10
01
00
10
01
00
10
01
00
10
01
00
10
01
00
10
01
00
10
10
01
00
10
01
00
10
01
00
10
01
00
10
01
00
10
01
00
10
01
00
10
01
00
10
01
00
10
01
00
10
01
00
10
01
00
10
01
00
10
01
00
10
01
00
10
01
00
10
01
00
10
01
00
10
01
00
10
01
00
10
01
00
10
01
00
10
01
00
10
01
00
10
01
00
10
01
00
10
01
00
10
01
00
10
01
00
10
01
00
10
01
00
10
01
00
10
01
00
10
01
00
10
01
00
10
01
00
10
01
00
10
01
00
10
01
00
10
01
00
10
01
00
10
01
00
10
01
00
10
01
00
10
01
00
10
01
00
10
01
00
10
01
00
10
01
00
10
01
00
10
01
00
10
01
00
10
01
00
10
01
00
10
01
00
10
01
00
10
01
00
10
01
00
10
01
00
10
01
00
10
01
00
10
01
00
10
01
00
10
01
00
10
01
00
10
01
00
10
01
00
10
01
00
10
01
00
10
01
00
10
01
00
10
01
00
10
01
00
10
01
00
10
01
00
10
01
00
10
01
00
10
01
00
10
01
00
10
01
00
10
01
00
00
10
01
00
10
01
00
10
01
00
10
01
00
10
01
00
10
01
00
10
01
00
10
01
00
10
01
00
10
01
00
10
01
00
10
01
00
10
01
00
10
01
00
10
01
00
10
01
00
10
01
00
10
01
00
10
01
00
10
01
00
10
01
00
10
01
00
10
01
00
10
01
00
10
01
00
10
01
00
10
01
00
10
01
00
10
01
00
10
01
00
10
01
00
10
01
00
10
01
00
10
01
00
10
01
00
10
01
00
10
01
00
10
01
00
10
01
00
10
01
00
10
01
00
10
01
00
10
01
00
10
01
00
10
01
00
10
01
00
10
01
00
10
01
00
10
01
00
10
01
00
10
01
00
10
01
00
10
01
00
10
01
00
10
01
00
10
01
00
10
01
00
10
01
00
10
01
00
10
01
00
10
01
00
10
01
00
10
01
00
10
01
00
10
01
00
10
01
00
10
01
00
10
01
00
10
01
00
10
01
00
10
01
00
10
01
00
10
01
00
10
01
00
10
01
00
10
01
00
10
01
00
10
01
00
10
01
00
10
01
00
10
01
01
00
10
01
00
10
01
00
10
01
00
10
01
00
10
01
00
10
01
00
10
01
00
10
01
00
10
01
00
10
01
00
10
01
00
10
01
00
10
01
00
10
01
00
10
01
00
10
01
00
10
01
00
10
01
00
10
01
00
10
01
00
10
01
00
10
01
00
10
01
00
10
01
00
10
01
00
10
01
00
10
01
00
10
01
00
10
01
00
10
01
00
10
01
00
10
01
00
10
01
00
10
01
00
10
01
00
10
01
00
10
01
00
10
01
00
10
01
00
10
01
00
10
01
00
10
01
00
10
01
00
10
01
00
10
01
00
10
01
00
10
01
00
10
01
00
10
01
00
10
01
00
10
01
00
10
01
00
10
01
00
10
01
00
10
01
00
10
01
00
10
01
00
10
01
00
10
01
00
10
01
00
10
01
00
10
01
00
10
01
00
10
01
00
10
01
00
10
01
00
10
01
00
10
01
00
10
01
00
10
01
00
10
01
00
10
01
00
10
01
00
10
01
00
10
01
00
10
01
00
10
01
00
10
01
00
10
01
00
10
01
00
10
10
01
00
10
01
00
10
01
00
10
01
00
10
01
00
10
01
00
10
01
00
10
01
00
10
01
00
10
01
00
10
01
00
10
01
00
10
01
00
10
01
00
10
01
00
10
01
00
10
01
00
10
01
00
10
01
00
10
01
00
10
01
00
10
01
00
10
01
00
10
01
00
10
01
00
10
01
00
10
01
00
10
01
00
10
01
00
10
01
00
10
01
00
10
01
00
10
01
00
10
01
00
10
01
00
10
01
00
10
01
00
10
01
00
10
01
00
10
01
00
10
01
00
10
01
00
10
01
00
10
01
00
10
01
00
10
01
00
10
01
00
10
01
00
10
01
00
10
01
00
10
01
00
10
01
00
10
01
00
10
01
00
10
01
00
10
01
00
10
01
00
10
01
00
10
01
00
10
01
00
10
01
00
10
01
00
10
01
00
10
01
00
10
01
00
10
01
00
10
01
00
10
01
00
10
01
00
10
01
00
10
01
00
10
01
00
10
01
00
10
01
00
10
01
00
10
01
00
10
01
00
10
01
00
10
01
00
10
01
00
10
01
00
00
10
01
00
10
01
00
10
01
00
10
01
00
10
01
00
10
01
00
10
01
00
10
01
00
10
01
00
10
01
00
10
01
00
10
01
00
10
01
00
10
01
00
10
01
00
10
01
00
10
01
00
10
01
00
10
01
00
10
01
00
10
01
00
10
01
00
10
01
00
10
01
00
10
01
00
10
01
00
10
01
00
10
01
00
10
01
00
10
01
00
10
01
00
10
01
00
10
01
00
10
01
00
10
01
00
10
01
00
10
01
00
10
01
00
10
01
00
10
01
00
10
01
00
10
01
00
10
01
00
10
01
00
10
01
00
10
01
00
10
01
00
10
01
00
10
01
00
10
01
00
10
01
00
10
01
00
10
01
00
10
01
00
10
01
00
10
01
00
10
01
00
10
01
00
10
01
00
10
01
00
10
01
00
10
01
00
10
01
00
10
01
00
10
01
00
10
01
00
10
01
00
10
01
00
10
01
00
10
01
00
10
01
00
10
01
00
10
01
00
10
01
00
10
01
00
10
01
00
10
01
00
10
01
00
10
01
00
10
01
00
10
01
01
00
10
01
00
10
01
00
10
01
00
10
01
00
10
01
00
10
01
00
10
01
00
10
01
00
10
01
00
10
01
00
10
01
00
10
01
00
10
01
00
10
01
00
10
01
00
10
01
00
10
01
00
10
01
00
10
01
00
10
01
00
10
01
00
10
01
00
10
01
00
10
01
00
10
01
00
10
01
00
10
01
00
10
01
00
10
01
00
10
01
00
10
01
00
10
01
00
10
01
00
10
01
00
10
01
00
10
01
00
10
01
00
10
01
00
10
01
00
10
01
00
10
01
00
10
01
00
10
01
00
10
01
00
10
01
00
10
01
00
10
01
00
10
01
00
10
01
00
10
01
00
10
01
00
10
01
00
10
01
00
10
01
00
10
01
00
10
01
00
10
01
00
10
01
00
10
01
00
10
01
00
10
01
00
10
01
00
10
01
00
10
01
00
10
01
00
10
01
00
10
01
00
10
01
00
10
01
00
10
01
00
10
01
00
10
01
00
10
01
00
10
01
00
10
01
00
10
01
00
10
01
00
10
01
00
10
01
00
10
01
00
10
10
01
00
10
01
00
10
01
00
10
01
00
10
01
00
10
01
00
10
01
00
10
01
00
10
01
00
10
01
00
10
01
00
10
01
00
10
01
00
10
01
00
10
01
00
10
01
00
10
01
00
10
01
00
10
01
00
10
01
00
10
01
00
10
01
00
10
01
00
10
01
00
10
01
00
10
01
00
10
01
00
10
01
00
10
01
00
10
01
00
10
01
00
10
01
00
10
01
00
10
01
00
10
01
00
10
01
00
10
01
00
10
01
00
10
01
00
10
01
00
10
01
00
10
01
00
10
01
00
10
01
00
10
01
00
10
01
00
10
01
00
10
01
00
10
01
00
10
01
00
10
01
00
10
01
00
10
01
00
10
01
00
10
01
00
10
01
00
10
01
00
10
01
00
10
01
00
10
01
00
10
01
00
10
01
00
10
01
00
10
01
00
10
01
00
10
01
00
10
01
00
10
01
00
10
01
00
10
01
00
10
01
00
10
01
00
10
01
00
10
01
00
10
01
00
10
01
00
10
01
00
10
01
00
10
01
00
10
01
00
10
01
00
00
10
01
00
10
01
00
10
01
00
10
01
00
10
01
00
10
01
00
10
01
00
10
01
00
10
01
00
10
01
00
10
01
00
10
01
00
10
01
00
10
01
00
10
01
00
10
01
00
10
01
00
10
01
00
10
01
00
10
01
00
10
01
00
10
01
00
10
01
00
10
01
00
10
01
00
10
01
00
10
01
00
10
01
00
10
01
00
10
01
00
10
01
00
10
01
00
10
01
00
10
01
00
10
01
00
10
01
00
10
01
00
10
01
00
10
01
00
10
01
00
10
01
00
10
01
00
10
01
00
10
01
00
10
01
00
10
01
00
10
01
00
10
01
00
10
01
00
10
01
00
10
01
00
10
01
00
10
01
00
10
01
00
10
01
00
10
01
00
10
01
00
10
01
00
10
01
00
10
01
00
10
01
00
10
01
00
10
01
00
10
01
00
10
01
00
10
01
00
10
01
00
10
01
00
10
01
00
10
01
00
10
01
00
10
01
00
10
01
00
10
01
00
10
01
00
10
01
00
10
01
00
10
01
00
10
01
00
10
01
00
10
01
01
00
10
01
00
10
01
00
10
01
00
10
01
00
10
01
00
10
01
00
10
01
00
10
01
00
10
01
00
10
01
00
10
01
00
10
01
00
10
01
00
10
01
00
10
01
00
10
01
00
10
01
00
10
01
00
10
01
00
10
01
00
10
01
00
10
01
00
10
01
00
10
01
00
10
01
00
10
01
00
10
01
00
10
01
00
10
01
00
10
01
00
10
01
00
10
01
00
10
01
00
10
01
00
10
01
00
10
01
00
10
01
00
10
01
00
10
01
00
10
01
00
10
01
00
10
01
00
10
01
00
10
01
00
10
01
00
10
01
00
10
01
00
10
01
00
10
01
00
10
01
00
10
01
00
10
01
00
10
01
00
10
01
00
10
01
00
10
01
00
10
01
00
10
01
00
10
01
00
10
01
00
10
01
00
10
01
00
10
01
00
10
01
00
10
01
00
10
01
00
10
01
00
10
01
00
10
01
00
10
01
00
10
01
00
10
01
00
10
01
00
10
01
00
10
01
00
10
01
00
10
01
00
10
01
00
10
01
00
10
01
00
10
10
01
00
10
01
00
10
01
00
10
01
00
10
01
00
10
01
00
10
01
00
10
01
00
10
01
00
10
01
00
10
01
00
10
01
00
10
01
00
10
01
00
10
01
00
10
01
00
10
01
00
10
01
00
10
01
00
10
01
00
10
01
00
10
01
00
10
01
00
10
01
00
10
01
00
10
01
00
10
01
00
10
01
00
10
01
00
10
01
00
10
01
00
10
01
00
10
01
00
10
01
00
10
01
00
10
01
00
10
01
00
10
01
00
10
01
00
10
01
00
10
01
00
10
01
00
10
01
00
10
01
00
10
01
00
10
01
00
10
01
00
10
01
00
10
01
00
10
01
00
10
01
00
10
01
00
10
01
00
10
01
00
10
01
00
10
01
00
10
01
00
10
01
00
10
01
00
10
01
00
10
01
00
10
01
00
10
01
00
10
01
00
10
01
00
10
01
00
10
01
00
10
01
00
10
01
00
10
01
00
10
01
00
10
01
00
10
01
00
10
01
00
10
01
00
10
01
00
10
01
00
10
01
00
10
01
00
10
01
00
10
01
00
00
10
01
00
10
01
00
10
01
00
10
01
00
10
01
00
10
01
00
10
01
00
10
01
00
10
01
00
10
01
00
10
01
00
10
01
00
10
01
00
10
01
00
10
01
00
10
01
00
10
01
00
10
01
00
10
01
00
10
01
00
10
01
00
10
01
00
10
01
00
10
01
00
10
01
00
10
01
00
10
01
00
10
01
00
10
01
00
10
01
00
10
01
00
10
01
00
10
01
00
10
01
00
10
01
00
10
01
00
10
01
00
10
01
00
10
01
00
10
01
00
10
01
00
10
01
00
10
01
00
10
01
00
10
01
00
10
01
00
10
01
00
10
01
00
10
01
00
10
01
00
10
01
00
10
01
00
10
01
00
10
01
00
10
01
00
10
01
00
10
01
00
10
01
00
10
01
00
10
01
00
10
01
00
10
01
00
10
01
00
10
01
00
10
01
00
10
01
00
10
01
00
10
01
00
10
01
00
10
01
00
10
01
00
10
01
00
10
01
00
10
01
00
10
01
00
10
01
00
10
01
00
10
01
00
10
01
00
10
01
00
10
01
01
00
10
01
00
10
01
00
10
01
00
10
01
00
10
01
00
10
01
00
10
01
00
10
01
00
10
01
00
10
01
00
10
01
00
10
01
00
10
01
00
10
01
00
10
01
00
10
01
00
10
01
00
10
01
00
10
01
00
10
01
00
10
01
00
10
01
00
10
01
00
10
01
00
10
01
00
10
01
00
10
01
00
10
01
00
10
01
00
10
01
00
10
01
00
10
01
00
10
01
00
10
01
00
10
01
00
10
01
00
10
01
00
10
01
00
10
01
00
10
01
00
10
01
00
10
01
00
10
01
00
10
01
00
10
01
00
10
01
00
10
01
00
10
01
00
10
01
00
10
01
00
10
01
00
10
01
00
10
01
00
10
01
00
10
01
00
10
01
00
10
01
00
10
01
00
10
01
00
10
01
00
10
01
00
10
01
00
10
01
00
10
01
00
10
01
00
10
01
00
10
01
00
10
01
00
10
01
00
10
01
00
10
01
00
10
01
00
10
01
00
10
01
00
10
01
00
10
01
00
10
01
00
10
01
00
10
01
00
10
01
00
10
10
01
00
10
01
00
10
01
00
10
01
00
10
01
00
10
01
00
10
01
00
10
01
00
10
01
00
10
01
00
10
01
00
10
01
00
10
01
00
10
01
00
10
01
00
10
01
00
10
01
00
10
01
00
10
01
00
10
01
00
10
01
00
10
01
00
10
01
00
10
01
00
10
01
00
10
01
00
10
01
00
10
01
00
10
01
00
10
01
00
10
01
00
10
01
00
10
01
00
10
01
00
10
01
00
10
01
00
10
01
00
10
01
00
10
01
00
10
01
00
10
01
00
10
01
00
10
01
00
10
01
00
10
01
00
10
01
00
10
01
00
10
01
00
10
01
00
10
01
00
10
01
00
10
01
00
10
01
00
10
01
00
10
01
00
10
01
00
10
01
00
10
01
00
10
01
00
10
01
00
10
01
00
10
01
00
10
01
00
10
01
00
10
01
00
10
01
00
10
01
00
10
01
00
10
01
00
10
01
00
10
01
00
10
01
00
10
01
00
10
01
00
10
01
00
10
01
00
10
01
00
10
01
00
10
01
00
10
01
00
10
01
00
00
10
01
00
10
01
00
10
01
00
10
01
00
10
01
00
10
01
00
10
01
00
10
01
00
10
01
00
10
01
00
10
01
00
10
01
00
10
01
00
10
01
00
10
01
00
10
01
00
10
01
00
10
01
00
10
01
00
10
01
00
10
01
00
10
01
00
10
01
00
10
01
00
10
01
00
10
01
00
10
01
00
10
01
00
10
01
00
10
01
00
10
01
00
10
01
00
10
01
00
10
01
00
10
01
00
10
01
00
10
01
00
10
01
00
10
01
00
10
01
00
10
01
00
10
01
00
10
01
00
10
01
00
10
01
00
10
01
00
10
01
00
10
01
00
10
01
00
10
01
00
10
01
00
10
01
00
10
01
00
10
01
00
10
01
00
10
01
00
10
01
00
10
01
00
10
01
00
10
01
00
10
01
00
10
01
00
10
01
00
10
01
00
10
01
00
10
01
00
10
01
00
10
01
00
10
01
00
10
01
00
10
01
00
10
01
00
10
01
00
10
01
00
10
01
00
10
01
00
10
01
00
10
01
00
10
01
00
10
01
00
10
01
01
00
10
01
00
10
01
00
10
01
00
10
01
00
10
01
00
10
01
00
10
01
00
10
01
00
10
01
00
10
01
00
10
01
00
10
01
00
10
01
00
10
01
00
10
01
00
10
01
00
10
01
00
10
01
00
10
01
00
10
01
00
10
01
00
10
01
00
10
01
00
10
01
00
10
01
00
10
01
00
10
01
00
10
01
00
10
01
00
10
01
00
10
01
00
10
01
00
10
01
00
10
01
00
10
01
00
10
01
00
10
01
00
10
01
00
10
01
00
10
01
00
10
01
00
10
01
00
10
01
00
10
01
00
10
01
00
10
01
00
10
01
00
10
01
00
10
01
00
10
01
00
10
01
00
10
01
00
10
01
00
10
01
00
10
01
00
10
01
00
10
01
00
10
01
00
10
01
00
10
01
00
10
01
00
10
01
00
10
01
00
10
01
00
10
01
00
10
01
00
10
01
00
10
01
00
10
01
00
10
01
00
10
01
00
10
01
00
10
01
00
10
01
00
10
01
00
10
01
00
10
01
00
10
01
00
10
01
00
10
01
00
10
10
01
00
10
01
00
10
01
00
10
01
00
10
01
00
10
01
00
10
01
00
10
01
00
10
01
00
10
01
00
10
01
00
10
01
00
10
01
00
10
01
00
10
01
00
10
01
00
10
01
00
10
01
00
10
01
00
10
01
00
10
01
00
10
01
00
10
01
00
10
01
00
10
01
00
10
01
00
10
01
00
10
01
00
10
01
00
10
01
00
10
01
00
10
01
00
10
01
00
10
01
00
10
01
00
10
01
00
10
01
00
10
01
00
10
01
00
10
01
00
10
01
00
10
01
00
10
01
00
10
01
00
10
01
00
10
01
00
10
01
00
10
01
00
10
01
00
10
01
00
10
01
00
10
01
00
10
01
00
10
01
00
10
01
00
10
01
00
10
01
00
10
01
00
10
01
00
10
01
00
10
01
00
10
01
00
10
01
00
10
01
00
10
01
00
10
01
00
10
01
00
10
01
00
10
01
00
10
01
00
10
01
00
10
01
00
10
01
00
10
01
00
10
01
00
10
01
00
10
01
00
10
01
00
10
01
00
10
01
00
10
01
00
00
10
01
00
10
01
00
10
01
00
10
01
00
10
01
00
10
01
00
10
01
00
10
01
00
10
01
00
10
01
00
10
01
00
10
01
00
10
01
00
10
01
00
10
01
00
10
01
00
10
01
00
10
01
00
10
01
00
10
01
00
10
01
00
10
01
00
10
01
00
10
01
00
10
01
00
10
01
00
10
01
00
10
01
00
10
01
00
10
01
00
10
01
00
10
01
00
10
01
00
10
01
00
10
01
00
10
01
00
10
01
00
10
01
00
10
01
00
10
01
00
10
01
00
10
01
00
10
01
00
10
01
00
10
01
00
10
01
00
10
01
00
10
01
00
10
01
00
10
01
00
10
01
00
10
01
00
10
01
00
10
01
00
10
01
00
10
01
00
10
01
00
10
01
00
10
01
00
10
01
00
10
01
00
10
01
00
10
01
00
10
01
00
10
01
00
10
01
00
10
01
00
10
01
00
10
01
00
10
01
00
10
01
00
10
01
00
10
01
00
10
01
00
10
01
00
10
01
00
10
01
00
10
01
00
10
01
00
10
01
00
10
01
01
00
10
01
00
10
01
00
10
01
00
10
01
00
10
01
00
10
01
00
10
01
00
10
01
00
10
01
00
10
01
00
10
01
00
10
01
00
10
01
00
10
01
00
10
01
00
10
01
00
10
01
00
10
01
00
10
01
00
10
01
00
10
01
00
10
01
00
10
01
00
10
01
00
10
01
00
10
01
00
10
01
00
10
01
00
10
01
00
10
01
00
10
01
00
10
01
00
10
01
00
10
01
00
10
01
00
10
01
00
10
01
00
10
01
00
10
01
00
10
01
00
10
01
00
10
01
00
10
01
00
10
01
00
10
01
00
10
01
00
10
01
00
10
01
00
10
01
00
10
01
00
10
01
00
10
01
00
10
01
00
10
01
00
10
01
00
10
01
00
10
01
00
10
01
00
10
01
00
10
01
00
10
01
00
10
01
00
10
01
00
10
01
00
10
01
00
10
01
00
10
01
00
10
01
00
10
01
00
10
01
00
10
01
00
10
01
00
10
01
00
10
01
00
10
01
00
10
01
00
10
01
00
10
01
00
10
01
00
10
01
00
10
10
01
00
10
01
00
10
01
00
10
01
00
10
01
00
10
01
00
10
01
00
10
01
00
10
01
00
10
01
00
10
01
00
10
01
00
10
01
00
10
01
00
10
01
00
10
01
00
10
01
00
10
01
00
10
01
00
10
01
00
10
01
00
10
01
00
10
01
00
10
01
00
10
01
00
10
01
00
10
01
00
10
01
00
10
01
00
10
01
00
10
01
00
10
01
00
10
01
00
10
01
00
10
01
00
10
01
00
10
01
00
10
01
00
10
01
00
10
01
00
10
01
00
10
01
00
10
01
00
10
01
00
10
01
00
10
01
00
10
01
00
10
01
00
10
01
00
10
01
00
10
01
00
10
01
00
10
01
00
10
01
00
10
01
00
10
01
00
10
01
00
10
01
00
10
01
00
10
01
00
10
01
00
10
01
00
10
01
00
10
01
00
10
01
00
10
01
00
10
01
00
10
01
00
10
01
00
10
01
00
10
01
00
10
01
00
10
01
00
10
01
00
10
01
00
10
01
00
10
01
00
10
01
00
10
01
00
10
01
00
10
01
00
00
10
01
00
10
01
00
10
01
00
10
01
00
10
01
00
10
01
00
10
01
00
10
01
00
10
01
00
10
01
00
10
01
00
10
01
00
10
01
00
10
01
00
10
01
00
10
01
00
10
01
00
10
01
00
10
01
00
10
01
00
10
01
00
10
01
00
10
01
00
10
01
00
10
01
00
10
01
00
10
01
00
10
01
00
10
01
00
10
01
00
10
01
00
10
01
00
10
01
00
10
01
00
10
01
00
10
01
00
10
01
00
10
01
00
10
01
00
10
01
00
10
01
00
10
01
00
10
01
00
10
01
00
10
01
00
10
01
00
10
01
00
10
01
00
10
01
00
10
01
00
10
01
00
10
01
00
10
01
00
10
01
00
10
01
00
10
01
00
10
01
00
10
01
00
10
01
00
10
01
00
10
01
00
10
01
00
10
01
00
10
01
00
10
01
00
10
01
00
10
01
00
10
01
00
10
01
00
10
01
00
10
01
00
10
01
00
10
01
00
10
01
00
10
01
00
10
01
00
10
01
00
10
01
00
10
01
00
10
01
00
10
01
01
00
10
01
00
10
01
00
10
01
00
10
01
00
10
01
00
10
01
00
10
01
00
10
01
00
10
01
00
10
01
00
10
01
00
10
01
00
10
01
00
10
01
00
10
01
00
10
01
00
10
01
00
10
01
00
10
01
00
10
01
00
10
01
00
10
01
00
10
01
00
10
01
00
10
01
00
10
01
00
10
01
00
10
01
00
10
01
00
10
01
00
10
01
00
10
01
00
10
01
00
10
01
00
10
01
00
10
01
00
10
01
00
10
01
00
10
01
00
10
01
00
10
01
00
10
01
00
10
01
00
10
01
00
10
01
00
10
01
00
10
01
00
10
01
00
10
01
00
10
01
00
10
01
00
10
01
00
10
01
00
10
01
00
10
01
00
10
01
00
10
01
00
10
01
00
10
01
00
10
01
00
10
01
00
10
01
00
10
01
00
10
01
00
10
01
00
10
01
00
10
01
00
10
01
00
10
01
00
10
01
00
10
01
00
10
01
00
10
01
00
10
01
00
10
01
00
10
01
00
10
01
00
10
01
00
10
01
00
10
01
00
10
10
01
00
10
01
00
10
01
00
10
01
00
10
01
00
10
01
00
10
01
00
10
01
00
10
01
00
10
01
00
10
01
00
10
01
00
10
01
00
10
01
00
10
01
00
10
01
00
10
01
00
10
01
00
10
01
00
10
01
00
10
01
00
10
01
00
10
01
00
10
01
00
10
01
00
10
01
00
10
01
00
10
01
00
10
01
00
10
01
00
10
01
00
10
01
00
10
01
00
10
01
00
10
01
00
10
01
00
10
01
00
10
01
00
10
01
00
10
01
00
10
01
00
10
01
00
10
01
00
10
01
00
10
01
00
10
01
00
10
01
00
10
01
00
10
01
00
10
01
00
10
01
00
10
01
00
10
01
00
10
01
00
10
01
00
10
01
00
10
01
00
10
01
00
10
01
00
10
01
00
10
01
00
10
01
00
10
01
00
10
01
00
10
01
00
10
01
00
10
01
00
10
01
00
10
01
00
10
01
00
10
01
00
10
01
00
10
01
00
10
01
00
10
01
00
10
01
00
10
01
00
10
01
00
10
01
00
10
01
00
10
01
00
00
10
01
00
10
01
00
10
01
00
10
01
00
10
01
00
10
01
00
10
01
00
10
01
00
10
01
00
10
01
00
10
01
00
10
01
00
10
01
00
10
01
00
10
01
00
10
01
00
10
01
00
10
01
00
10
01
00
10
01
00
10
01
00
10
01
00
10
01
00
10
01
00
10
01
00
10
01
00
10
01
00
10
01
00
10
01
00
10
01
00
10
01
00
10
01
00
10
01
00
10
01
00
10
01
00
10
01
00
10
01
00
10
01
00
10
01
00
10
01
00
10
01
00
10
01
00
10
01
00
10
01
00
10
01
00
10
01
00
10
01
00
10
01
00
10
01
00
10
01
00
10
01
00
10
01
00
10
01
00
10
01
00
10
01
00
10
01
00
10
01
00
10
01
00
10
01
00
10
01
00
10
01
00
10
01
00
10
01
00
10
01
00
10
01
00
10
01
00
10
01
00
10
01
00
10
01
00
10
01
00
10
01
00
10
01
00
10
01
00
10
01
00
10
01
00
10
01
00
10
01
00
10
01
00
10
01
00
10
01
00
10
01
01
00
10
01
00
10
01
00
10
01
00
10
01
00
10
01
00
10
01
00
10
01
00
10
01
00
10
01
00
10
01
00
10
01
00
10
01
00
10
01
00
10
01
00
10
01
00
10
01
00
10
01
00
10
01
00
10
01
00
10
01
00
10
01
00
10
01
00
10
01
00
10
01
00
10
01
00
10
01
00
10
01
00
10
01
00
10
01
00
10
01
00
10
01
00
10
01
00
10
01
00
10
01
00
10
01
00
10
01
00
10
01
00
10
01
00
10
01
00
10
01
00
10
01
00
10
01
00
10
01
00
10
01
00
10
01
00
10
01
00
10
01
00
10
01
00
10
01
00
10
01
00
10
01
00
10
01
00
10
01
00
10
01
00
10
01
00
10
01
00
10
01
00
10
01
00
10
01
00
10
01
00
10
01
00
10
01
00
10
01
00
10
01
00
10
01
00
10
01
00
10
01
00
10
01
00
10
01
00
10
01
00
10
01
00
10
01
00
10
01
00
10
01
00
10
01
00
10
01
00
10
01
00
10
01
00
10
01
00
10
01
00
10
10
01
00
10
01
00
10
01
00
10
01
00
10
01
00
10
01
00
10
01
00
10
01
00
10
01
00
10
01
00
10
01
00
10
01
00
10
01
00
10
01
00
10
01
00
10
01
00
10
01
00
10
01
00
10
01
00
10
01
00
10
01
00
10
01
00
10
01
00
10
01
00
10
01
00
10
01
00
10
01
00
10
01
00
10
01
00
10
01
00
10
01
00
10
01
00
10
01
00
10
01
00
10
01
00
10
01
00
10
01
00
10
01
00
10
01
00
10
01
00
10
01
00
10
01
00
10
01
00
10
01
00
10
01
00
10
01
00
10
01
00
10
01
00
10
01
00
10
01
00
10
01
00
10
01
00
10
01
00
10
01
00
10
01
00
10
01
00
10
01
00
10
01
00
10
01
00
10
01
00
10
01
00
10
01
00
10
01
00
10
01
00
10
01
00
10
01
00
10
01
00
10
01
00
10
01
00
10
01
00
10
01
00
10
01
00
10
01
00
10
01
00
10
01
00
10
01
00
10
01
00
10
01
00
10
01
00
10
01
00
10
01
00
00
10
01
00
10
01
00
10
01
00
10
01
00
10
01
00
10
01
00
10
01
00
10
01
00
10
01
00
10
01
00
10
01
00
10
01
00
10
01
00
10
01
00
10
01
00
10
01
00
10
01
00
10
01
00
10
01
00
10
01
00
10
01
00
10
01
00
10
01
00
10
01
00
10
01
00
10
01
00
10
01
00
10
01
00
10
01
00
10
01
00
10
01
00
10
01
00
10
01
00
10
01
00
10
01
00
10
01
00
10
01
00
10
01
00
10
01
00
10
01
00
10
01
00
10
01
00
10
01
00
10
01
00
10
01
00
10
01
00
10
01
00
10
01
00
10
01
00
10
01
00
10
01
00
10
01
00
10
01
00
10
01
00
10
01
00
10
01
00
10
01
00
10
01
00
10
01
00
10
01
00
10
01
00
10
01
00
10
01
00
10
01
00
10
01
00
10
01
00
10
01
00
10
01
00
10
01
00
10
01
00
10
01
00
10
01
00
10
01
00
10
01
00
10
01
00
10
01
00
10
01
00
10
01
00
10
01
00
10
01
00
10
01
01
00
10
01
00
10
01
00
10
01
00
10
01
00
10
01
00
10
01
00
10
01
00
10
01
00
10
01
00
10
01
00
10
01
00
10
01
00
10
01
00
10
01
00
10
01
00
10
01
00
10
01
00
10
01
00
10
01
00
10
01
00
10
01
00
10
01
00
10
01
00
10
01
00
10
01
00
10
01
00
10
01
00
10
01
00
10
01
00
10
01
00
10
01
00
10
01
00
10
01
00
10
01
00
10
01
00
10
01
00
10
01
00
10
01
00
10
01
00
10
01
00
10
01
00
10
01
00
10
01
00
10
01
00
10
01
00
10
01
00
10
01
00
10
01
00
10
01
00
10
01
00
10
01
00
10
01
00
10
01
00
10
01
00
10
01
00
10
01
00
10
01
00
10
01
00
10
01
00
10
01
00
10
01
00
10
01
00
10
01
00
10
01
00
10
01
00
10
01
00
10
01
00
10
01
00
10
01
00
10
01
00
10
01
00
10
01
00
10
01
00
10
01
00
10
01
00
10
01
00
10
01
00
10
01
00
10
01
00
10
01
00
10
10
01
00
10
01
00
10
01
00
10
01
00
10
01
00
10
01
00
10
01
00
10
01
00
10
01
00
10
01
00
10
01
00
10
01
00
10
01
00
10
01
00
10
01
00
10
01
00
10
01
00
10
01
00
10
01
00
10
01
00
10
01
00
10
01
00
10
01
00
10
01
00
10
01
00
10
01
00
10
01
00
10
01
00
10
01
00
10
01
00
10
01
00
10
01
00
10
01
00
10
01
00
10
01
00
10
01
00
10
01
00
10
01
00
10
01
00
10
01
00
10
01
00
10
01
00
10
01
00
10
01
00
10
01
00
10
01
00
10
01
00
10
01
00
10
01
00
10
01
00
10
01
00
10
01
00
10
01
00
10
01
00
10
01
00
10
01
00
10
01
00
10
01
00
10
01
00
10
01
00
10
01
00
10
01
00
10
01
00
10
01
00
10
01
00
10
01
00
10
01
00
10
01
00
10
01
00
10
01
00
10
01
00
10
01
00
10
01
00
10
01
00
10
01
00
10
01
00
10
01
00
10
01
00
10
01
00
10
01
00
10
01
00
00
10
01
00
10
01
00
10
01
00
10
01
00
10
01
00
10
01
00
10
01
00
10
01
00
10
01
00
10
01
00
10
01
00
10
01
00
10
01
00
10
01
00
10
01
00
10
01
00
10
01
00
10
01
00
10
01
00
10
01
00
10
01
00
10
01
00
10
01
00
10
01
00
10
01
00
10
01
00
10
01
00
10
01
00
10
01
00
10
01
00
10
01
00
10
01
00
10
01
00
10
01
00
10
01
00
10
01
00
10
01
00
10
01
00
10
01
00
10
01
00
10
01
00
10
01
00
10
01
00
10
01
00
10
01
00
10
01
00
10
01
00
10
01
00
10
01
00
10
01
00
10
01
00
10
01
00
10
01
00
10
01
00
10
01
00
10
01
00
10
01
00
10
01
00
10
01
00
10
01
00
10
01
00
10
01
00
10
01
00
10
01
00
10
01
00
10
01
00
10
01
00
10
01
00
10
01
00
10
01
00
10
01
00
10
01
00
10
01
00
10
01
00
10
01
00
10
01
00
10
01
00
10
01
00
10
01
00
10
01
00
10
01
01
00
10
01
00
10
01
00
10
01
00
10
01
00
10
01
00
10
01
00
10
01
00
10
01
00
10
01
00
10
01
00
10
01
00
10
01
00
10
01
00
10
01
00
10
01
00
10
01
00
10
01
00
10
01
00
10
01
00
10
01
00
10
01
00
10
01
00
10
01
00
10
01
00
10
01
00
10
01
00
10
01
00
10
01
00
10
01
00
10
01
00
10
01
00
10
01
00
10
01
00
10
01
00
10
01
00
10
01
00
10
01
00
10
01
00
10
01
00
10
01
00
10
01
00
10
01
00
10
01
00
10
01
00
10
01
00
10
01
00
10
01
00
10
01
00
10
01
00
10
01
00
10
01
00
10
01
00
10
01
00
10
01
00
10
01
00
10
01
00
10
01
00
10
01
00
10
01
00
10
01
00
10
01
00
10
01
00
10
01
00
10
01
00
10
01
00
10
01
00
10
01
00
10
01
00
10
01
00
10
01
00
10
01
00
10
01
00
10
01
00
10
01
00
10
01
00
10
01
00
10
01
00
10
01
00
10
01
00
10
01
00
10
10
01
00
10
01
00
10
01
00
10
01
00
10
01
00
10
01
00
10
01
00
10
01
00
10
01
00
10
01
00
10
01
00
10
01
00
10
01
00
10
01
00
10
01
00
10
01
00
10
01
00
10
01
00
10
01
00
10
01
00
10
01
00
10
01
00
10
01
00
10
01
00
10
01
00
10
01
00
10
01
00
10
01
00
10
01
00
10
01
00
10
01
00
10
01
00
10
01
00
10
01
00
10
01
00
10
01
00
10
01
00
10
01
00
10
01
00
10
01
00
10
01
00
10
01
00
10
01
00
10
01
00
10
01
00
10
01
00
10
01
00
10
01
00
10
01
00
10
01
00
10
01
00
10
01
00
10
01
00
10
01
00
10
01
00
10
01
00
10
01
00
10
01
00
10
01
00
10
01
00
10
01
00
10
01
00
10
01
00
10
01
00
10
01
00
10
01
00
10
01
00
10
01
00
10
01
00
10
01
00
10
01
00
10
01
00
10
01
00
10
01
00
10
01
00
10
01
00
10
01
00
10
01
00
10
01
00
10
01
00
10
01
00
00
10
01
00
10
01
00
10
01
00
10
01
00
10
01
00
10
01
00
10
01
00
10
01
00
10
01
00
10
01
00
10
01
00
10
01
00
10
01
00
10
01
00
10
01
00
10
01
00
10
01
00
10
01
00
10
01
00
10
01
00
10
01
00
10
01
00
10
01
00
10
01
00
10
01
00
10
01
00
10
01
00
10
01
00
10
01
00
10
01
00
10
01
00
10
01
00
10
01
00
10
01
00
10
01
00
10
01
00
10
01
00
10
01
00
10
01
00
10
01
00
10
01
00
10
01
00
10
01
00
10
01
00
10
01
00
10
01
00
10
01
00
10
01
00
10
01
00
10
01
00
10
01
00
10
01
00
10
01
00
10
01
00
10
01
00
10
01
00
10
01
00
10
01
00
10
01
00
10
01
00
10
01
00
10
01
00
10
01
00
10
01
00
10
01
00
10
01
00
10
01
00
10
01
00
10
01
00
10
01
00
10
01
00
10
01
00
10
01
00
10
01
00
10
01
00
10
01
00
10
01
00
10
01
00
10
01
00
10
01
00
10
01
01
00
10
01
00
10
01
00
10
01
00
10
01
00
10
01
00
10
01
00
10
01
00
10
01
00
10
01
00
10
01
00
10
01
00
10
01
00
10
01
00
10
01
00
10
01
00
10
01
00
10
01
00
10
01
00
10
01
00
10
01
00
10
01
00
10
01
00
10
01
00
10
01
00
10
01
00
10
01
00
10
01
00
10
01
00
10
01
00
10
01
00
10
01
00
10
01
00
10
01
00
10
01
00
10
01
00
10
01
00
10
01
00
10
01
00
10
01
00
10
01
00
10
01
00
10
01
00
10
01
00
10
01
00
10
01
00
10
01
00
10
01
00
10
01
00
10
01
00
10
01
00
10
01
00
10
01
00
10
01
00
10
01
00
10
01
00
10
01
00
10
01
00
10
01
00
10
01
00
10
01
00
10
01
00
10
01
00
10
01
00
10
01
00
10
01
00
10
01
00
10
01
00
10
01
00
10
01
00
10
01
00
10
01
00
10
01
00
10
01
00
10
01
00
10
01
00
10
01
00
10
01
00
10
01
00
10
01
00
10
01
00
10
10
01
00
10
01
00
10
01
00
10
01
00
10
01
00
10
01
00
10
01
00
10
01
00
10
01
00
10
01
00
10
01
00
10
01
00
10
01
00
10
01
00
10
01
00
10
01
00
10
01
00
10
01
00
10
01
00
10
01
00
10
01
00
10
01
00
10
01
00
10
01
00
10
01
00
10
01
00
10
01
00
10
01
00
10
01
00
10
01
00
10
01
00
10
01
00
10
01
00
10
01
00
10
01
00
10
01
00
10
01
00
10
01
00
10
01
00
10
01
00
10
01
00
10
01
00
10
01
00
10
01
00
10
01
00
10
01
00
10
01
00
10
01
00
10
01
00
10
01
00
10
01
00
10
01
00
10
01
00
10
01
00
10
01
00
10
01
00
10
01
00
10
01
00
10
01
00
10
01
00
10
01
00
10
01
00
10
01
00
10
01
00
10
01
00
10
01
00
10
01
00
10
01
00
10
01
00
10
01
00
10
01
00
10
01
00
10
01
00
10
01
00
10
01
00
10
01
00
10
01
00
10
01
00
10
01
00
10
01
00
10
01
00
00
10
01
00
10
01
00
10
01
00
10
01
00
10
01
00
10
01
00
10
01
00
10
01
00
10
01
00
10
01
00
10
01
00
10
01
00
10
01
00
10
01
00
10
01
00
10
01
00
10
01
00
10
01
00
10
01
00
10
01
00
10
01
00
10
01
00
10
01
00
10
01
00
10
01
00
10
01
00
10
01
00
10
01
00
10
01
00
10
01
00
10
01
00
10
01
00
10
01
00
10
01
00
10
01
00
10
01
00
10
01
00
10
01
00
10
01
00
10
01
00
10
01
00
10
01
00
10
01
00
10
01
00
10
01
00
10
01
00
10
01
00
10
01
00
10
01
00
10
01
00
10
01
00
10
01
00
10
01
00
10
01
00
10
01
00
10
01
00
10
01
00
10
01
00
10
01
00
10
01
00
10
01
00
10
01
00
10
01
00
10
01
00
10
01
00
10
01
00
10
01
00
10
01
00
10
01
00
10
01
00
10
01
00
10
01
00
10
01
00
10
01
00
10
01
00
10
01
00
10
01
00
10
01
00
10
01
00
10
01
00
10
01
01
00
10
01
00
10
01
00
10
01
00
10
01
00
10
01
00
10
01
00
10
01
00
10
01
00
10
01
00
10
01
00
10
01
00
10
01
00
10
01
00
10
01
00
10
01
00
10
01
00
10
01
00
10
01
00
10
01
00
10
01
00
10
01
00
10
01
00
10
01
00
10
01
00
10
01
00
10
01
00
10
01
00
10
01
00
10
01
00
10
01
00
10
01
00
10
01
00
10
01
00
10
01
00
10
01
00
10
01
00
10
01
00
10
01
00
10
01
00
10
01
00
10
01
00
10
01
00
10
01
00
10
01
00
10
01
00
10
01
00
10
01
00
10
01
00
10
01
00
10
01
00
10
01
00
10
01
00
10
01
00
10
01
00
10
01
00
10
01
00
10
01
00
10
01
00
10
01
00
10
01
00
10
01
00
10
01
00
10
01
00
10
01
00
10
01
00
10
01
00
10
01
00
10
01
00
10
01
00
10
01
00
10
01
00
10
01
00
10
01
00
10
01
00
10
01
00
10
01
00
10
01
00
10
01
00
10
01
00
10
01
00
10
10
01
00
10
01
00
10
01
00
10
01
00
10
01
00
10
01
00
10
01
00
10
01
00
10
01
00
10
01
00
10
01
00
10
01
00
10
01
00
10
01
00
10
01
00
10
01
00
10
01
00
10
01
00
10
01
00
10
01
00
10
01
00
10
01
00
10
01
00
10
01
00
10
01
00
10
01
00
10
01
00
10
01
00
10
01
00
10
01
00
10
01
00
10
01
00
10
01
00
10
01
00
10
01
00
10
01
00
10
01
00
10
01
00
10
01
00
10
01
00
10
01
00
10
01
00
10
01
00
10
01
00
10
01
00
10
01
00
10
01
00
10
01
00
10
01
00
10
01
00
10
01
00
10
01
00
10
01
00
10
01
00
10
01
00
10
01
00
10
01
00
10
01
00
10
01
00
10
01
00
10
01
00
10
01
00
10
01
00
10
01
00
10
01
00
10
01
00
10
01
00
10
01
00
10
01
00
10
01
00
10
01
00
10
01
00
10
01
00
10
01
00
10
01
00
10
01
00
10
01
00
10
01
00
10
01
00
10
01
00
10
01
00
00
10
01
00
10
01
00
10
01
00
10
01
00
10
01
00
10
01
00
10
01
00
10
01
00
10
01
00
10
01
00
10
01
00
10
01
00
10
01
00
10
01
00
10
01
00
10
01
00
10
01
00
10
01
00
10
01
00
10
01
00
10
01
00
10
01
00
10
01
00
10
01
00
10
01
00
10
01
00
10
01
00
10
01
00
10
01
00
10
01
00
10
01
00
10
01
00
10
01
00
10
01
00
10
01
00
10
01
00
10
01
00
10
01
00
10
01
00
10
01
00
10
01
00
10
01
00
10
01
00
10
01
00
10
01
00
10
01
00
10
01
00
10
01
00
10
01
00
10
01
00
10
01
00
10
01
00
10
01
00
10
01
00
10
01
00
10
01
00
10
01
00
10
01
00
10
01
00
10
01
00
10
01
00
10
01
00
10
01
00
10
01
00
10
01
00
10
01
00
10
01
00
10
01
00
10
01
00
10
01
00
10
01
00
10
01
00
10
01
00
10
01
00
10
01
00
10
01
00
10
01
00
10
01
00
10
01
00
10
01
00
10
01
01
00
10
01
00
10
01
00
10
01
00
10
01
00
10
01
00
10
01
00
10
01
00
10
01
00
10
01
00
10
01
00
10
01
00
10
01
00
10
01
00
10
01
00
10
01
00
10
01
00
10
01
00
10
01
00
10
01
00
10
01
00
10
01
00
10
01
00
10
01
00
10
01
00
10
01
00
10
01
00
10
01
00
10
01
00
10
01
00
10
01
00
10
01
00
10
01
00
10
01
00
10
01
00
10
01
00
10
01
00
10
01
00
10
01
00
10
01
00
10
01
00
10
01
00
10
01
00
10
01
00
10
01
00
10
01
00
10
01
00
10
01
00
10
01
00
10
01
00
10
01
00
10
01
00
10
01
00
10
01
00
10
01
00
10
01
00
10
01
00
10
01
00
10
01
00
10
01
00
10
01
00
10
01
00
10
01
00
10
01
00
10
01
00
10
01
00
10
01
00
10
01
00
10
01
00
10
01
00
10
01
00
10
01
00
10
01
00
10
01
00
10
01
00
10
01
00
10
01
00
10
01
00
10
01
00
10
01
00
10
01
00
10
10
01
00
10
01
00
10
01
00
10
01
00
10
01
00
10
01
00
10
01
00
10
01
00
10
01
00
10
01
00
10
01
00
10
01
00
10
01
00
10
01
00
10
01
00
10
01
00
10
01
00
10
01
00
10
01
00
10
01
00
10
01
00
10
01
00
10
01
00
10
01
00
10
01
00
10
01
00
10
01
00
10
01
00
10
01
00
10
01
00
10
01
00
10
01
00
10
01
00
10
01
00
10
01
00
10
01
00
10
01
00
10
01
00
10
01
00
10
01
00
10
01
00
10
01
00
10
01
00
10
01
00
10
01
00
10
01
00
10
01
00
10
01
00
10
01
00
10
01
00
10
01
00
10
01
00
10
01
00
10
01
00
10
01
00
10
01
00
10
01
00
10
01
00
10
01
00
10
01
00
10
01
00
10
01
00
10
01
00
10
01
00
10
01
00
10
01
00
10
01
00
10
01
00
10
01
00
10
01
00
10
01
00
10
01
00
10
01
00
10
01
00
10
01
00
10
01
00
10
01
00
10
01
00
10
01
00
10
01
00
10
01
00
00
10
01
00
10
01
00
10
01
00
10
01
00
10
01
00
10
01
00
10
01
00
10
01
00
10
01
00
10
01
00
10
01
00
10
01
00
10
01
00
10
01
00
10
01
00
10
01
00
10
01
00
10
01
00
10
01
00
10
01
00
10
01
00
10
01
00
10
01
00
10
01
00
10
01
00
10
01
00
10
01
00
10
01
00
10
01
00
10
01
00
10
01
00
10
01
00
10
01
00
10
01
00
10
01
00
10
01
00
10
01
00
10
01
00
10
01
00
10
01
00
10
01
00
10
01
00
10
01
00
10
01
00
10
01
00
10
01
00
10
01
00
10
01
00
10
01
00
10
01
00
10
01
00
10
01
00
10
01
00
10
01
00
10
01
00
10
01
00
10
01
00
10
01
00
10
01
00
10
01
00
10
01
00
10
01
00
10
01
00
10
01
00
10
01
00
10
01
00
10
01
00
10
01
00
10
01
00
10
01
00
10
01
00
10
01
00
10
01
00
10
01
00
10
01
00
10
01
00
10
01
00
10
01
00
10
01
00
10
01
00
10
01
01
00
10
01
00
10
01
00
10
01
00
10
01
00
10
01
00
10
01
00
10
01
00
10
01
00
10
01
00
10
01
00
10
01
00
10
01
00
10
01
00
10
01
00
10
01
00
10
01
00
10
01
00
10
01
00
10
01
00
10
01
00
10
01
00
10
01
00
10
01
00
10
01
00
10
01
00
10
01
00
10
01
00
10
01
00
10
01
00
10
01
00
10
01
00
10
01
00
10
01
00
10
01
00
10
01
00
10
01
00
10
01
00
10
01
00
10
01
00
10
01
00
10
01
00
10
01
00
10
01
00
10
01
00
10
01
00
10
01
00
10
01
00
10
01
00
10
01
00
10
01
00
10
01
00
10
01
00
10
01
00
10
01
00
10
01
00
10
01
00
10
01
00
10
01
00
10
01
00
10
01
00
10
01
00
10
01
00
10
01
00
10
01
00
10
01
00
10
01
00
10
01
00
10
01
00
10
01
00
10
01
00
10
01
00
10
01
00
10
01
00
10
01
00
10
01
00
10
01
00
10
01
00
10
01
00
10
01
00
10
01
00
10
10
01
00
10
01
00
10
01
00
10
01
00
10
01
00
10
01
00
10
01
00
10
01
00
10
01
00
10
01
00
10
01
00
10
01
00
10
01
00
10
01
00
10
01
00
10
01
00
10
01
00
10
01
00
10
01
00
10
01
00
10
01
00
10
01
00
10
01
00
10
01
00
10
01
00
10
01
00
10
01
00
10
01
00
10
01
00
10
01
00
10
01
00
10
01
00
10
01
00
10
01
00
10
01
00
10
01
00
10
01
00
10
01
00
10
01
00
10
01
00
10
01
00
10
01
00
10
01
00
10
01
00
10
01
00
10
01
00
10
01
00
10
01
00
10
01
00
10
01
00
10
01
00
10
01
00
10
01
00
10
01
00
10
01
00
10
01
00
10
01
00
10
01
00
10
01
00
10
01
00
10
01
00
10
01
00
10
01
00
10
01
00
10
01
00
10
01
00
10
01
00
10
01
00
10
01
00
10
01
00
10
01
00
10
01
00
10
01
00
10
01
00
10
01
00
10
01
00
10
01
00
10
01
00
10
01
00
10
01
00
10
01
00
00
10
01
00
10
01
00
10
01
00
10
01
00
10
01
00
10
01
00
10
01
00
10
01
00
10
01
00
10
01
00
10
01
00
10
01
00
10
01
00
10
01
00
10
01
00
10
01
00
10
01
00
10
01
00
10
01
00
10
01
00
10
01
00
10
01
00
10
01
00
10
01
00
10
01
00
10
01
00
10
01
00
10
01
00
10
01
00
10
01
00
10
01
00
10
01
00
10
01
00
10
01
00
10
01
00
10
01
00
10
01
00
10
01
00
10
01
00
10
01
00
10
01
00
10
01
00
10
01
00
10
01
00
10
01
00
10
01
00
10
01
00
10
01
00
10
01
00
10
01
00
10
01
00
10
01
00
10
01
00
10
01
00
10
01
00
10
01
00
10
01
00
10
01
00
10
01
00
10
01
00
10
01
00
10
01
00
10
01
00
10
01
00
10
01
00
10
01
00
10
01
00
10
01
00
10
01
00
10
01
00
10
01
00
10
01
00
10
01
00
10
01
00
10
01
00
10
01
00
10
01
00
10
01
00
10
01
00
10
01
00
10
01
01
00
10
01
00
10
01
00
10
01
00
10
01
00
10
01
00
10
01
00
10
01
00
10
01
00
10
01
00
10
01
00
10
01
00
10
01
00
10
01
00
10
01
00
10
01
00
10
01
00
10
01
00
10
01
00
10
01
00
10
01
00
10
01
00
10
01
00
10
01
00
10
01
00
10
01
00
10
01
00
10
01
00
10
01
00
10
01
00
10
01
00
10
01
00
10
01
00
10
01
00
10
01
00
10
01
00
10
01
00
10
01
00
10
01
00
10
01
00
10
01
00
10
01
00
10
01
00
10
01
00
10
01
00
10
01
00
10
01
00
10
01
00
10
01
00
10
01
00
10
01
00
10
01
00
10
01
00
10
01
00
10
01
00
10
01
00
10
01
00
10
01
00
10
01
00
10
01
00
10
01
00
10
01
00
10
01
00
10
01
00
10
01
00
10
01
00
10
01
00
10
01
00
10
01
00
10
01
00
10
01
00
10
01
00
10
01
00
10
01
00
10
01
00
10
01
00
10
01
00
10
01
00
10
01
00
10
01
00
10
01
00
10
10
01
00
10
01
00
10
01
00
10
01
00
10
01
00
10
01
00
10
01
00
10
01
00
10
01
00
10
01
00
10
01
00
10
01
00
10
01
00
10
01
00
10
01
00
10
01
00
10
01
00
10
01
00
10
01
00
10
01
00
10
01
00
10
01
00
10
01
00
10
01
00
10
01
00
10
01
00
10
01
00
10
01
00
10
01
00
10
01
00
10
01
00
10
01
00
10
01
00
10
01
00
10
01
00
10
01
00
10
01
00
10
01
00
10
01
00
10
01
00
10
01
00
10
01
00
10
01
00
10
01
00
10
01
00
10
01
00
10
01
00
10
01
00
10
01
00
10
01
00
10
01
00
10
01
00
10
01
00
10
01
00
10
01
00
10
01
00
10
01
00
10
01
00
10
01
00
10
01
00
10
01
00
10
01
00
10
01
00
10
01
00
10
01
00
10
01
00
10
01
00
10
01
00
10
01
00
10
01
00
10
01
00
10
01
00
10
01
00
10
01
00
10
01
00
10
01
00
10
01
00
10
01
00
10
01
00
10
01
00
10
01
00
00
10
01
00
10
01
00
10
01
00
10
01
00
10
01
00
10
01
00
10
01
00
10
01
00
10
01
00
10
01
00
10
01
00
10
01
00
10
01
00
10
01
00
10
01
00
10
01
00
10
01
00
10
01
00
10
01
00
10
01
00
10
01
00
10
01
00
10
01
00
10
01
00
10
01
00
10
01
00
10
01
00
10
01
00
10
01
00
10
01
00
10
01
00
10
01
00
10
01
00
10
01
00
10
01
00
10
01
00
10
01
00
10
01
00
10
01
00
10
01
00
10
01
00
10
01
00
10
01
00
10
01
00
10
01
00
10
01
00
10
01
00
10
01
00
10
01
00
10
01
00
10
01
00
10
01
00
10
01
00
10
01
00
10
01
00
10
01
00
10
01
00
10
01
00
10
01
00
10
01
00
10
01
00
10
01
00
10
01
00
10
01
00
10
01
00
10
01
00
10
01
00
10
01
00
10
01
00
10
01
00
10
01
00
10
01
00
10
01
00
10
01
00
10
01
00
10
01
00
10
01
00
10
01
00
10
01
00
10
01
00
10
01
01
00
10
01
00
10
01
00
10
01
00
10
01
00
10
01
00
10
01
00
10
01
00
10
01
00
10
01
00
10
01
00
10
01
00
10
01
00
10
01
00
10
01
00
10
01
00
10
01
00
10
01
00
10
01
00
10
01
00
10
01
00
10
01
00
10
01
00
10
01
00
10
01
00
10
01
00
10
01
00
10
01
00
10
01
00
10
01
00
10
01
00
10
01
00
10
01
00
10
01
00
10
01
00
10
01
00
10
01
00
10
01
00
10
01
00
10
01
00
10
01
00
10
01
00
10
01
00
10
01
00
10
01
00
10
01
00
10
01
00
10
01
00
10
01
00
10
01
00
10
01
00
10
01
00
10
01
00
10
01
00
10
01
00
10
01
00
10
01
00
10
01
00
10
01
00
10
01
00
10
01
00
10
01
00
10
01
00
10
01
00
10
01
00
10
01
00
10
01
00
10
01
00
10
01
00
10
01
00
10
01
00
10
01
00
10
01
00
10
01
00
10
01
00
10
01
00
10
01
00
10
01
00
10
01
00
10
01
00
10
01
00
10
10
01
00
10
01
00
10
01
00
10
01
00
10
01
00
10
01
00
10
01
00
10
01
00
10
01
00
10
01
00
10
01
00
10
01
00
10
01
00
10
01
00
10
01
00
10
01
00
10
01
00
10
01
00
10
01
00
10
01
00
10
01
00
10
01
00
10
01
00
10
01
00
10
01
00
10
01
00
10
01
00
10
01
00
10
01
00
10
01
00
10
01
00
10
01
00
10
01
00
10
01
00
10
01
00
10
01
00
10
01
00
10
01
00
10
01
00
10
01
00
10
01
00
10
01
00
10
01
00
10
01
00
10
01
00
10
01
00
10
01
00
10
01
00
10
01
00
10
01
00
10
01
00
10
01
00
10
01
00
10
01
00
10
01
00
10
01
00
10
01
00
10
01
00
10
01
00
10
01
00
10
01
00
10
01
00
10
01
00
10
01
00
10
01
00
10
01
00
10
01
00
10
01
00
10
01
00
10
01
00
10
01
00
10
01
00
10
01
00
10
01
00
10
01
00
10
01
00
10
01
00
10
01
00
10
01
00
10
01
00
10
01
00
00
10
01
00
10
01
00
10
01
00
10
01
00
10
01
00
10
01
00
10
01
00
10
01
00
10
01
00
10
01
00
10
01
00
10
01
00
10
01
00
10
01
00
10
01
00
10
01
00
10
01
00
10
01
00
10
01
00
10
01
00
10
01
00
10
01
00
10
01
00
10
01
00
10
01
00
10
01
00
10
01
00
10
01
00
10
01
00
10
01
00
10
01
00
10
01
00
10
01
00
10
01
00
10
01
00
10
01
00
10
01
00
10
01
00
10
01
00
10
01
00
10
01
00
10
01
00
10
01
00
10
01
00
10
01
00
10
01
00
10
01
00
10
01
00
10
01
00
10
01
00
10
01
00
10
01
00
10
01
00
10
01
00
10
01
00
10
01
00
10
01
00
10
01
00
10
01
00
10
01
00
10
01
00
10
01
00
10
01
00
10
01
00
10
01
00
10
01
00
10
01
00
10
01
00
10
01
00
10
01
00
10
01
00
10
01
00
10
01
00
10
01
00
10
01
00
10
01
00
10
01
00
10
01
00
10
01
00
10
01
00
10
01
01
00
10
01
00
10
01
00
10
01
00
10
01
00
10
01
00
10
01
00
10
01
00
10
01
00
10
01
00
10
01
00
10
01
00
10
01
00
10
01
00
10
01
00
10
01
00
10
01
00
10
01
00
10
01
00
10
01
00
10
01
00
10
01
00
10
01
00
10
01
00
10
01
00
10
01
00
10
01
00
10
01
00
10
01
00
10
01
00
10
01
00
10
01
00
10
01
00
10
01
00
10
01
00
10
01
00
10
01
00
10
01
00
10
01
00
10
01
00
10
01
00
10
01
00
10
01
00
10
01
00
10
01
00
10
01
00
10
01
00
10
01
00
10
01
00
10
01
00
10
01
00
10
01
00
10
01
00
10
01
00
10
01
00
10
01
00
10
01
00
10
01
00
10
01
00
10
01
00
10
01
00
10
01
00
10
01
00
10
01
00
10
01
00
10
01
00
10
01
00
10
01
00
10
01
00
10
01
00
10
01
00
10
01
00
10
01
00
10
01
00
10
01
00
10
01
00
10
01
00
10
01
00
10
01
00
10
01
00
10
01
00
10
10
01
00
10
01
00
10
01
00
10
01
00
10
01
00
10
01
00
10
01
00
10
01
00
10
01
00
10
01
00
10
01
00
10
01
00
10
01
00
10
01
00
10
01
00
10
01
00
10
01
00
10
01
00
10
01
00
10
01
00
10
01
00
10
01
00
10
01
00
10
01
00
10
01
00
10
01
00
10
01
00
10
01
00
10
01
00
10
01
00
10
01
00
10
01
00
10
01
00
10
01
00
10
01
00
10
01
00
10
01
00
10
01
00
10
01
00
10
01
00
10
01
00
10
01
00
10
01
00
10
01
00
10
01
00
10
01
00
10
01
00
10
01
00
10
01
00
10
01
00
10
01
00
10
01
00
10
01
00
10
01
00
10
01
00
10
01
00
10
01
00
10
01
00
10
01
00
10
01
00
10
01
00
10
01
00
10
01
00
10
01
00
10
01
00
10
01
00
10
01
00
10
01
00
10
01
00
10
01
00
10
01
00
10
01
00
10
01
00
10
01
00
10
01
00
10
01
00
10
01
00
10
01
00
10
01
00
10
01
00
10
01
00
00
10
01
00
10
01
00
10
01
00
10
01
00
10
01
00
10
01
00
10
01
00
10
01
00
10
01
00
10
01
00
10
01
00
10
01
00
10
01
00
10
01
00
10
01
00
10
01
00
10
01
00
10
01
00
10
01
00
10
01
00
10
01
00
10
01
00
10
01
00
10
01
00
10
01
00
10
01
00
10
01
00
10
01
00
10
01
00
10
01
00
10
01
00
10
01
00
10
01
00
10
01
00
10
01
00
10
01
00
10
01
00
10
01
00
10
01
00
10
01
00
10
01
00
10
01
00
10
01
00
10
01
00
10
01
00
10
01
00
10
01
00
10
01
00
10
01
00
10
01
00
10
01
00
10
01
00
10
01
00
10
01
00
10
01
00
10
01
00
10
01
00
10
01
00
10
01
00
10
01
00
10
01
00
10
01
00
10
01
00
10
01
00
10
01
00
10
01
00
10
01
00
10
01
00
10
01
00
10
01
00
10
01
00
10
01
00
10
01
00
10
01
00
10
01
00
10
01
00
10
01
00
10
01
00
10
01
00
10
01
00
10
01
01
00
10
01
00
10
01
00
10
01
00
10
01
00
10
01
00
10
01
00
10
01
00
10
01
00
10
01
00
10
01
00
10
01
00
10
01
00
10
01
00
10
01
00
10
01
00
10
01
00
10
01
00
10
01
00
10
01
00
10
01
00
10
01
00
10
01
00
10
01
00
10
01
00
10
01
00
10
01
00
10
01
00
10
01
00
10
01
00
10
01
00
10
01
00
10
01
00
10
01
00
10
01
00
10
01
00
10
01
00
10
01
00
10
01
00
10
01
00
10
01
00
10
01
00
10
01
00
10
01
00
10
01
00
10
01
00
10
01
00
10
01
00
10
01
00
10
01
00
10
01
00
10
01
00
10
01
00
10
01
00
10
01
00
10
01
00
10
01
00
10
01
00
10
01
00
10
01
00
10
01
00
10
01
00
10
01
00
10
01
00
10
01
00
10
01
00
10
01
00
10
01
00
10
01
00
10
01
00
10
01
00
10
01
00
10
01
00
10
01
00
10
01
00
10
01
00
10
01
00
10
01
00
10
01
00
10
01
00
10
01
00
10
10
01
00
10
01
00
10
01
00
10
01
00
10
01
00
10
01
00
10
01
00
10
01
00
10
01
00
10
01
00
10
01
00
10
01
00
10
01
00
10
01
00
10
01
00
10
01
00
10
01
00
10
01
00
10
01
00
10
01
00
10
01
00
10
01
00
10
01
00
10
01
00
10
01
00
10
01
00
10
01
00
10
01
00
10
01
00
10
01
00
10
01
00
10
01
00
10
01
00
10
01
00
10
01
00
10
01
00
10
01
00
10
01
00
10
01
00
10
01
00
10
01
00
10
01
00
10
01
00
10
01
00
10
01
00
10
01
00
10
01
00
10
01
00
10
01
00
10
01
00
10
01
00
10
01
00
10
01
00
10
01
00
10
01
00
10
01
00
10
01
00
10
01
00
10
01
00
10
01
00
10
01
00
10
01
00
10
01
00
10
01
00
10
01
00
10
01
00
10
01
00
10
01
00
10
01
00
10
01
00
10
01
00
10
01
00
10
01
00
10
01
00
10
01
00
10
01
00
10
01
00
10
01
00
10
01
00
10
01
00
10
01
00
00
10
01
00
10
01
00
10
01
00
10
01
00
10
01
00
10
01
00
10
01
00
10
01
00
10
01
00
10
01
00
10
01
00
10
01
00
10
01
00
10
01
00
10
01
00
10
01
00
10
01
00
10
01
00
10
01
00
10
01
00
10
01
00
10
01
00
10
01
00
10
01
00
10
01
00
10
01
00
10
01
00
10
01
00
10
01
00
10
01
00
10
01
00
10
01
00
10
01
00
10
01
00
10
01
00
10
01
00
10
01
00
10
01
00
10
01
00
10
01
00
10
01
00
10
01
00
10
01
00
10
01
00
10
01
00
10
01
00
10
01
00
10
01
00
10
01
00
10
01
00
10
01
00
10
01
00
10
01
00
10
01
00
10
01
00
10
01
00
10
01
00
10
01
00
10
01
00
10
01
00
10
01
00
10
01
00
10
01
00
10
01
00
10
01
00
10
01
00
10
01
00
10
01
00
10
01
00
10
01
00
10
01
00
10
01
00
10
01
00
10
01
00
10
01
00
10
01
00
10
01
00
10
01
00
10
01
00
10
01
00
10
01
01
00
10
01
00
10
01
00
10
01
00
10
01
00
10
01
00
10
01
00
10
01
00
10
01
00
10
01
00
10
01
00
10
01
00
10
01
00
10
01
00
10
01
00
10
01
00
10
01
00
10
01
00
10
01
00
10
01
00
10
01
00
10
01
00
10
01
00
10
01
00
10
01
00
10
01
00
10
01
00
10
01
00
10
01
00
10
01
00
10
01
00
10
01
00
10
01
00
10
01
00
10
01
00
10
01
00
10
01
00
10
01
00
10
01
00
10
01
00
10
01
00
10
01
00
10
01
00
10
01
00
10
01
00
10
01
00
10
01
00
10
01
00
10
01
00
10
01
00
10
01
00
10
01
00
10
01
00
10
01
00
10
01
00
10
01
00
10
01
00
10
01
00
10
01
00
10
01
00
10
01
00
10
01
00
10
01
00
10
01
00
10
01
00
10
01
00
10
01
00
10
01
00
10
01
00
10
01
00
10
01
00
10
01
00
10
01
00
10
01
00
10
01
00
10
01
00
10
01
00
10
01
00
10
01
00
10
01
00
10
01
00
10
10
01
00
10
01
00
10
01
00
10
01
00
10
01
00
10
01
00
10
01
00
10
01
00
10
01
00
10
01
00
10
01
00
10
01
00
10
01
00
10
01
00
10
01
00
10
01
00
10
01
00
10
01
00
10
01
00
10
01
00
10
01
00
10
01
00
10
01
00
10
01
00
10
01
00
10
01
00
10
01
00
10
01
00
10
01
00
10
01
00
10
01
00
10
01
00
10
01
00
10
01
00
10
01
00
10
01
00
10
01
00
10
01
00
10
01
00
10
01
00
10
01
00
10
01
00
10
01
00
10
01
00
10
01
00
10
01
00
10
01
00
10
01
00
10
01
00
10
01
00
10
01
00
10
01
00
10
01
00
10
01
00
10
01
00
10
01
00
10
01
00
10
01
00
10
01
00
10
01
00
10
01
00
10
01
00
10
01
00
10
01
00
10
01
00
10
01
00
10
01
00
10
01
00
10
01
00
10
01
00
10
01
00
10
01
00
10
01
00
10
01
00
10
01
00
10
01
00
10
01
00
10
01
00
10
01
00
10
01
00
10
01
00
00
10
01
00
10
01
00
10
01
00
10
01
00
10
01
00
10
01
00
10
01
00
10
01
00
10
01
00
10
01
00
10
01
00
10
01
00
10
01
00
10
01
00
10
01
00
10
01
00
10
01
00
10
01
00
10
01
00
10
01
00
10
01
00
10
01
00
10
01
00
10
01
00
10
01
00
10
01
00
10
01
00
10
01
00
10
01
00
10
01
00
10
01
00
10
01
00
10
01
00
10
01
00
10
01
00
10
01
00
10
01
00
10
01
00
10
01
00
10
01
00
10
01
00
10
01
00
10
01
00
10
01
00
10
01
00
10
01
00
10
01
00
10
01
00
10
01
00
10
01
00
10
01
00
10
01
00
10
01
00
10
01
00
10
01
00
10
01
00
10
01
00
10
01
00
10
01
00
10
01
00
10
01
00
10
01
00
10
01
00
10
01
00
10
01
00
10
01
00
10
01
00
10
01
00
10
01
00
10
01
00
10
01
00
10
01
00
10
01
00
10
01
00
10
01
00
10
01
00
10
01
00
10
01
00
10
01
00
10
01
00
10
01
01
00
10
01
00
10
01
00
10
01
00
10
01
00
10
01
00
10
01
00
10
01
00
10
01
00
10
01
00
10
01
00
10
01
00
10
01
00
10
01
00
10
01
00
10
01
00
10
01
00
10
01
00
10
01
00
10
01
00
10
01
00
10
01
00
10
01
00
10
01
00
10
01
00
10
01
00
10
01
00
10
01
00
10
01
00
10
01
00
10
01
00
10
01
00
10
01
00
10
01
00
10
01
00
10
01
00
10
01
00
10
01
00
10
01
00
10
01
00
10
01
00
10
01
00
10
01
00
10
01
00
10
01
00
10
01
00
10
01
00
10
01
00
10
01
00
10
01
00
10
01
00
10
01
00
10
01
00
10
01
00
10
01
00
10
01
00
10
01
00
10
01
00
10
01
00
10
01
00
10
01
00
10
01
00
10
01
00
10
01
00
10
01
00
10
01
00
10
01
00
10
01
00
10
01
00
10
01
00
10
01
00
10
01
00
10
01
00
10
01
00
10
01
00
10
01
00
10
01
00
10
01
00
10
01
00
10
01
00
10
01
00
10
10
01
00
10
01
00
10
01
00
10
01
00
10
01
00
10
01
00
10
01
00
10
01
00
10
01
00
10
01
00
10
01
00
10
01
00
10
01
00
10
01
00
10
01
00
10
01
00
10
01
00
10
01
00
10
01
00
10
01
00
10
01
00
10
01
00
10
01
00
10
01
00
10
01
00
10
01
00
10
01
00
10
01
00
10
01
00
10
01
00
10
01
00
10
01
00
10
01
00
10
01
00
10
01
00
10
01
00
10
01
00
10
01
00
10
01
00
10
01
00
10
01
00
10
01
00
10
01
00
10
01
00
10
01
00
10
01
00
10
01
00
10
01
00
10
01
00
10
01
00
10
01
00
10
01
00
10
01
00
10
01
00
10
01
00
10
01
00
10
01
00
10
01
00
10
01
00
10
01
00
10
01
00
10
01
00
10
01
00
10
01
00
10
01
00
10
01
00
10
01
00
10
01
00
10
01
00
10
01
00
10
01
00
10
01
00
10
01
00
10
01
00
10
01
00
10
01
00
10
01
00
10
01
00
10
01
00
10
01
00
10
01
00
00
10
01
00
10
01
00
10
01
00
10
01
00
10
01
00
10
01
00
10
01
00
10
01
00
10
01
00
10
01
00
10
01
00
10
01
00
10
01
00
10
01
00
10
01
00
10
01
00
10
01
00
10
01
00
10
01
00
10
01
00
10
01
00
10
01
00
10
01
00
10
01
00
10
01
00
10
01
00
10
01
00
10
01
00
10
01
00
10
01
00
10
01
00
10
01
00
10
01
00
10
01
00
10
01
00
10
01
00
10
01
00
10
01
00
10
01
00
10
01
00
10
01
00
10
01
00
10
01
00
10
01
00
10
01
00
10
01
00
10
01
00
10
01
00
10
01
00
10
01
00
10
01
00
10
01
00
10
01
00
10
01
00
10
01
00
10
01
00
10
01
00
10
01
00
10
01
00
10
01
00
10
01
00
10
01
00
10
01
00
10
01
00
10
01
00
10
01
00
10
01
00
10
01
00
10
01
00
10
01
00
10
01
00
10
01
00
10
01
00
10
01
00
10
01
00
10
01
00
10
01
00
10
01
00
10
01
00
10
01
00
10
01
01
00
10
01
00
10
01
00
10
01
00
10
01
00
10
01
00
10
01
00
10
01
00
10
01
00
10
01
00
10
01
00
10
01
00
10
01
00
10
01
00
10
01
00
10
01
00
10
01
00
10
01
00
10
01
00
10
01
00
10
01
00
10
01
00
10
01
00
10
01
00
10
01
00
10
01
00
10
01
00
10
01
00
10
01
00
10
01
00
10
01
00
10
01
00
10
01
00
10
01
00
10
01
00
10
01
00
10
01
00
10
01
00
10
01
00
10
01
00
10
01
00
10
01
00
10
01
00
10
01
00
10
01
00
10
01
00
10
01
00
10
01
00
10
01
00
10
01
00
10
01
00
10
01
00
10
01
00
10
01
00
10
01
00
10
01
00
10
01
00
10
01
00
10
01
00
10
01
00
10
01
00
10
01
00
10
01
00
10
01
00
10
01
00
10
01
00
10
01
00
10
01
00
10
01
00
10
01
00
10
01
00
10
01
00
10
01
00
10
01
00
10
01
00
10
01
00
10
01
00
10
01
00
10
01
00
10
01
00
10
01
00
10
10
01
00
10
01
00
10
01
00
10
01
00
10
01
00
10
01
00
10
01
00
10
01
00
10
01
00
10
01
00
10
01
00
10
01
00
10
01
00
10
01
00
10
01
00
10
01
00
10
01
00
10
01
00
10
01
00
10
01
00
10
01
00
10
01
00
10
01
00
10
01
00
10
01
00
10
01
00
10
01
00
10
01
00
10
01
00
10
01
00
10
01
00
10
01
00
10
01
00
10
01
00
10
01
00
10
01
00
10
01
00
10
01
00
10
01
00
10
01
00
10
01
00
10
01
00
10
01
00
10
01
00
10
01
00
10
01
00
10
01
00
10
01
00
10
01
00
10
01
00
10
01
00
10
01
00
10
01
00
10
01
00
10
01
00
10
01
00
10
01
00
10
01
00
10
01
00
10
01
00
10
01
00
10
01
00
10
01
00
10
01
00
10
01
00
10
01
00
10
01
00
10
01
00
10
01
00
10
01
00
10
01
00
10
01
00
10
01
00
10
01
00
10
01
00
10
01
00
10
01
00
10
01
00
10
01
00
10
01
00
10
01
00
00
10
01
00
10
01
00
10
01
00
10
01
00
10
01
00
10
01
00
10
01
00
10
01
00
10
01
00
10
01
00
10
01
00
10
01
00
10
01
00
10
01
00
10
01
00
10
01
00
10
01
00
10
01
00
10
01
00
10
01
00
10
01
00
10
01
00
10
01
00
10
01
00
10
01
00
10
01
00
10
01
00
10
01
00
10
01
00
10
01
00
10
01
00
10
01
00
10
01
00
10
01
00
10
01
00
10
01
00
10
01
00
10
01
00
10
01
00
10
01
00
10
01
00
10
01
00
10
01
00
10
01
00
10
01
00
10
01
00
10
01
00
10
01
00
10
01
00
10
01
00
10
01
00
10
01
00
10
01
00
10
01
00
10
01
00
10
01
00
10
01
00
10
01
00
10
01
00
10
01
00
10
01
00
10
01
00
10
01
00
10
01
00
10
01
00
10
01
00
10
01
00
10
01
00
10
01
00
10
01
00
10
01
00
10
01
00
10
01
00
10
01
00
10
01
00
10
01
00
10
01
00
10
01
00
10
01
00
10
01
00
10
01
01
00
10
01
00
10
01
00
10
01
00
10
01
00
10
01
00
10
01
00
10
01
00
10
01
00
10
01
00
10
01
00
10
01
00
10
01
00
10
01
00
10
01
00
10
01
00
10
01
00
10
01
00
10
01
00
10
01
00
10
01
00
10
01
00
10
01
00
10
01
00
10
01
00
10
01
00
10
01
00
10
01
00
10
01
00
10
01
00
10
01
00
10
01
00
10
01
00
10
01
00
10
01
00
10
01
00
10
01
00
10
01
00
10
01
00
10
01
00
10
01
00
10
01
00
10
01
00
10
01
00
10
01
00
10
01
00
10
01
00
10
01
00
10
01
00
10
01
00
10
01
00
10
01
00
10
01
00
10
01
00
10
01
00
10
01
00
10
01
00
10
01
00
10
01
00
10
01
00
10
01
00
10
01
00
10
01
00
10
01
00
10
01
00
10
01
00
10
01
00
10
01
00
10
01
00
10
01
00
10
01
00
10
01
00
10
01
00
10
01
00
10
01
00
10
01
00
10
01
00
10
01
00
10
01
00
10
01
00
10
01
00
10
10
01
00
10
01
00
10
01
00
10
01
00
10
01
00
10
01
00
10
01
00
10
01
00
10
01
00
10
01
00
10
01
00
10
01
00
10
01
00
10
01
00
10
01
00
10
01
00
10
01
00
10
01
00
10
01
00
10
01
00
10
01
00
10
01
00
10
01
00
10
01
00
10
01
00
10
01
00
10
01
00
10
01
00
10
01
00
10
01
00
10
01
00
10
01
00
10
01
00
10
01
00
10
01
00
10
01
00
10
01
00
10
01
00
10
01
00
10
01
00
10
01
00
10
01
00
10
01
00
10
01
00
10
01
00
10
01
00
10
01
00
10
01
00
10
01
00
10
01
00
10
01
00
10
01
00
10
01
00
10
01
00
10
01
00
10
01
00
10
01
00
10
01
00
10
01
00
10
01
00
10
01
00
10
01
00
10
01
00
10
01
00
10
01
00
10
01
00
10
01
00
10
01
00
10
01
00
10
01
00
10
01
00
10
01
00
10
01
00
10
01
00
10
01
00
10
01
00
10
01
00
10
01
00
10
01
00
10
01
00
10
01
00
00
10
01
00
10
01
00
10
01
00
10
01
00
10
01
00
10
01
00
10
01
00
10
01
00
10
01
00
10
01
00
10
01
00
10
01
00
10
01
00
10
01
00
10
01
00
10
01
00
10
01
00
10
01
00
10
01
00
10
01
00
10
01
00
10
01
00
10
01
00
10
01
00
10
01
00
10
01
00
10
01
00
10
01
00
10
01
00
10
01
00
10
01
00
10
01
00
10
01
00
10
01
00
10
01
00
10
01
00
10
01
00
10
01
00
10
01
00
10
01
00
10
01
00
10
01
00
10
01
00
10
01
00
10
01
00
10
01
00
10
01
00
10
01
00
10
01
00
10
01
00
10
01
00
10
01
00
10
01
00
10
01
00
10
01
00
10
01
00
10
01
00
10
01
00
10
01
00
10
01
00
10
01
00
10
01
00
10
01
00
10
01
00
10
01
00
10
01
00
10
01
00
10
01
00
10
01
00
10
01
00
10
01
00
10
01
00
10
01
00
10
01
00
10
01
00
10
01
00
10
01
00
10
01
00
10
01
00
10
01
00
10
01
01
00
10
01
00
10
01
00
10
01
00
10
01
00
10
01
00
10
01
00
10
01
00
10
01
00
10
01
00
10
01
00
10
01
00
10
01
00
10
01
00
10
01
00
10
01
00
10
01
00
10
01
00
10
01
00
10
01
00
10
01
00
10
01
00
10
01
00
10
01
00
10
01
00
10
01
00
10
01
00
10
01
00
10
01
00
10
01
00
10
01
00
10
01
00
10
01
00
10
01
00
10
01
00
10
01
00
10
01
00
10
01
00
10
01
00
10
01
00
10
01
00
10
01
00
10
01
00
10
01
00
10
01
00
10
01
00
10
01
00
10
01
00
10
01
00
10
01
00
10
01
00
10
01
00
10
01
00
10
01
00
10
01
00
10
01
00
10
01
00
10
01
00
10
01
00
10
01
00
10
01
00
10
01
00
10
01
00
10
01
00
10
01
00
10
01
00
10
01
00
10
01
00
10
01
00
10
01
00
10
01
00
10
01
00
10
01
00
10
01
00
10
01
00
10
01
00
10
01
00
10
01
00
10
01
00
10
01
00
10
01
00
10
10
01
00
10
01
00
10
01
00
10
01
00
10
01
00
10
01
00
10
01
00
10
01
00
10
01
00
10
01
00
10
01
00
10
01
00
10
01
00
10
01
00
10
01
00
10
01
00
10
01
00
10
01
00
10
01
00
10
01
00
10
01
00
10
01
00
10
01
00
10
01
00
10
01
00
10
01
00
10
01
00
10
01
00
10
01
00
10
01
00
10
01
00
10
01
00
10
01
00
10
01
00
10
01
00
10
01
00
10
01
00
10
01
00
10
01
00
10
01
00
10
01
00
10
01
00
10
01
00
10
01
00
10
01
00
10
01
00
10
01
00
10
01
00
10
01
00
10
01
00
10
01
00
10
01
00
10
01
00
10
01
00
10
01
00
10
01
00
10
01
00
10
01
00
10
01
00
10
01
00
10
01
00
10
01
00
10
01
00
10
01
00
10
01
00
10
01
00
10
01
00
10
01
00
10
01
00
10
01
00
10
01
00
10
01
00
10
01
00
10
01
00
10
01
00
10
01
00
10
01
00
10
01
00
10
01
00
10
01
00
10
01
00
00
10
01
00
10
01
00
10
01
00
10
01
00
10
01
00
10
01
00
10
01
00
10
01
00
10
01
00
10
01
00
10
01
00
10
01
00
10
01
00
10
01
00
10
01
00
10
01
00
10
01
00
10
01
00
10
01
00
10
01
00
10
01
00
10
01
00
10
01
00
10
01
00
10
01
00
10
01
00
10
01
00
10
01
00
10
01
00
10
01
00
10
01
00
10
01
00
10
01
00
10
01
00
10
01
00
10
01
00
10
01
00
10
01
00
10
01
00
10
01
00
10
01
00
10
01
00
10
01
00
10
01
00
10
01
00
10
01
00
10
01
00
10
01
00
10
01
00
10
01
00
10
01
00
10
01
00
10
01
00
10
01
00
10
01
00
10
01
00
10
01
00
10
01
00
10
01
00
10
01
00
10
01
00
10
01
00
10
01
00
10
01
00
10
01
00
10
01
00
10
01
00
10
01
00
10
01
00
10
01
00
10
01
00
10
01
00
10
01
00
10
01
00
10
01
00
10
01
00
10
01
00
10
01
00
10
01
00
10
01
00
10
01
01
00
10
01
00
10
01
00
10
01
00
10
01
00
10
01
00
10
01
00
10
01
00
10
01
00
10
01
00
10
01
00
10
01
00
10
01
00
10
01
00
10
01
00
10
01
00
10
01
00
10
01
00
10
01
00
10
01
00
10
01
00
10
01
00
10
01
00
10
01
00
10
01
00
10
01
00
10
01
00
10
01
00
10
01
00
10
01
00
10
01
00
10
01
00
10
01
00
10
01
00
10
01
00
10
01
00
10
01
00
10
01
00
10
01
00
10
01
00
10
01
00
10
01
00
10
01
00
10
01
00
10
01
00
10
01
00
10
01
00
10
01
00
10
01
00
10
01
00
10
01
00
10
01
00
10
01
00
10
01
00
10
01
00
10
01
00
10
01
00
10
01
00
10
01
00
10
01
00
10
01
00
10
01
00
10
01
00
10
01
00
10
01
00
10
01
00
10
01
00
10
01
00
10
01
00
10
01
00
10
01
00
10
01
00
10
01
00
10
01
00
10
01
00
10
01
00
10
01
00
10
01
00
10
01
00
10
01
00
10
01
00
10
10
01
00
10
01
00
10
01
00
10
01
00
10
01
00
10
01
00
10
01
00
10
01
00
10
01
00
10
01
00
10
01
00
10
01
00
10
01
00
10
01
00
10
01
00
10
01
00
10
01
00
10
01
00
10
01
00
10
01
00
10
01
00
10
01
00
10
01
00
10
01
00
10
01
00
10
01
00
10
01
00
10
01
00
10
01
00
10
01
00
10
01
00
10
01
00
10
01
00
10
01
00
10
01
00
10
01
00
10
01
00
10
01
00
10
01
00
10
01
00
10
01
00
10
01
00
10
01
00
10
01
00
10
01
00
10
01
00
10
01
00
10
01
00
10
01
00
10
01
00
10
01
00
10
01
00
10
01
00
10
01
00
10
01
00
10
01
00
10
01
00
10
01
00
10
01
00
10
01
00
10
01
00
10
01
00
10
01
00
10
01
00
10
01
00
10
01
00
10
01
00
10
01
00
10
01
00
10
01
00
10
01
00
10
01
00
10
01
00
10
01
00
10
01
00
10
01
00
10
01
00
10
01
00
10
01
00
10
01
00
10
01
00
00
10
01
00
10
01
00
10
01
00
10
01
00
10
01
00
10
01
00
10
01
00
10
01
00
10
01
00
10
01
00
10
01
00
10
01
00
10
01
00
10
01
00
10
01
00
10
01
00
10
01
00
10
01
00
10
01
00
10
01
00
10
01
00
10
01
00
10
01
00
10
01
00
10
01
00
10
01
00
10
01
00
10
01
00
10
01
00
10
01
00
10
01
00
10
01
00
10
01
00
10
01
00
10
01
00
10
01
00
10
01
00
10
01
00
10
01
00
10
01
00
10
01
00
10
01
00
10
01
00
10
01
00
10
01
00
10
01
00
10
01
00
10
01
00
10
01
00
10
01
00
10
01
00
10
01
00
10
01
00
10
01
00
10
01
00
10
01
00
10
01
00
10
01
00
10
01
00
10
01
00
10
01
00
10
01
00
10
01
00
10
01
00
10
01
00
10
01
00
10
01
00
10
01
00
10
01
00
10
01
00
10
01
00
10
01
00
10
01
00
10
01
00
10
01
00
10
01
00
10
01
00
10
01
00
10
01
00
10
01
00
10
01
01
00
10
01
00
10
01
00
10
01
00
10
01
00
10
01
00
10
01
00
10
01
00
10
01
00
10
01
00
10
01
00
10
01
00
10
01
00
10
01
00
10
01
00
10
01
00
10
01
00
10
01
00
10
01
00
10
01
00
10
01
00
10
01
00
10
01
00
10
01
00
10
01
00
10
01
00
10
01
00
10
01
00
10
01
00
10
01
00
10
01
00
10
01
00
10
01
00
10
01
00
10
01
00
10
01
00
10
01
00
10
01
00
10
01
00
10
01
00
10
01
00
10
01
00
10
01
00
10
01
00
10
01
00
10
01
00
10
01
00
10
01
00
10
01
00
10
01
00
10
01
00
10
01
00
10
01
00
10
01
00
10
01
00
10
01
00
10
01
00
10
01
00
10
01
00
10
01
00
10
01
00
10
01
00
10
01
00
10
01
00
10
01
00
10
01
00
10
01
00
10
01
00
10
01
00
10
01
00
10
01
00
10
01
00
10
01
00
10
01
00
10
01
00
10
01
00
10
01
00
10
01
00
10
01
00
10
01
00
10
01
00
10
10
01
00
10
01
00
10
01
00
10
01
00
10
01
00
10
01
00
10
01
00
10
01
00
10
01
00
10
01
00
10
01
00
10
01
00
10
01
00
10
01
00
10
01
00
10
01
00
10
01
00
10
01
00
10
01
00
10
01
00
10
01
00
10
01
00
10
01
00
10
01
00
10
01
00
10
01
00
10
01
00
10
01
00
10
01
00
10
01
00
10
01
00
10
01
00
10
01
00
10
01
00
10
01
00
10
01
00
10
01
00
10
01
00
10
01
00
10
01
00
10
01
00
10
01
00
10
01
00
10
01
00
10
01
00
10
01
00
10
01
00
10
01
00
10
01
00
10
01
00
10
01
00
10
01
00
10
01
00
10
01
00
10
01
00
10
01
00
10
01
00
10
01
00
10
01
00
10
01
00
10
01
00
10
01
00
10
01
00
10
01
00
10
01
00
10
01
00
10
01
00
10
01
00
10
01
00
10
01
00
10
01
00
10
01
00
10
01
00
10
01
00
10
01
00
10
01
00
10
01
00
10
01
00
10
01
00
10
01
00
10
01
00
00
10
01
00
10
01
00
10
01
00
10
01
00
10
01
00
10
01
00
10
01
00
10
01
00
10
01
00
10
01
00
10
01
00
10
01
00
10
01
00
10
01
00
10
01
00
10
01
00
10
01
00
10
01
00
10
01
00
10
01
00
10
01
00
10
01
00
10
01
00
10
01
00
10
01
00
10
01
00
10
01
00
10
01
00
10
01
00
10
01
00
10
01
00
10
01
00
10
01
00
10
01
00
10
01
00
10
01
00
10
01
00
10
01
00
10
01
00
10
01
00
10
01
00
10
01
00
10
01
00
10
01
00
10
01
00
10
01
00
10
01
00
10
01
00
10
01
00
10
01
00
10
01
00
10
01
00
10
01
00
10
01
00
10
01
00
10
01
00
10
01
00
10
01
00
10
01
00
10
01
00
10
01
00
10
01
00
10
01
00
10
01
00
10
01
00
10
01
00
10
01
00
10
01
00
10
01
00
10
01
00
10
01
00
10
01
00
10
01
00
10
01
00
10
01
00
10
01
00
10
01
00
10
01
00
10
01
00
10
01
00
10
01
01
00
10
01
00
10
01
00
10
01
00
10
01
00
10
01
00
10
01
00
10
01
00
10
01
00
10
01
00
10
01
00
10
01
00
10
01
00
10
01
00
10
01
00
10
01
00
10
01
00
10
01
00
10
01
00
10
01
00
10
01
00
10
01
00
10
01
00
10
01
00
10
01
00
10
01
00
10
01
00
10
01
00
10
01
00
10
01
00
10
01
00
10
01
00
10
01
00
10
01
00
10
01
00
10
01
00
10
01
00
10
01
00
10
01
00
10
01
00
10
01
00
10
01
00
10
01
00
10
01
00
10
01
00
10
01
00
10
01
00
10
01
00
10
01
00
10
01
00
10
01
00
10
01
00
10
01
00
10
01
00
10
01
00
10
01
00
10
01
00
10
01
00
10
01
00
10
01
00
10
01
00
10
01
00
10
01
00
10
01
00
10
01
00
10
01
00
10
01
00
10
01
00
10
01
00
10
01
00
10
01
00
10
01
00
10
01
00
10
01
00
10
01
00
10
01
00
10
01
00
10
01
00
10
01
00
10
01
00
10
01
00
10
10
01
00
10
01
00
10
01
00
10
01
00
10
01
00
10
01
00
10
01
00
10
01
00
10
01
00
10
01
00
10
01
00
10
01
00
10
01
00
10
01
00
10
01
00
10
01
00
10
01
00
10
01
00
10
01
00
10
01
00
10
01
00
10
01
00
10
01
00
10
01
00
10
01
00
10
01
00
10
01
00
10
01
00
10
01
00
10
01
00
10
01
00
10
01
00
10
01
00
10
01
00
10
01
00
10
01
00
10
01
00
10
01
00
10
01
00
10
01
00
10
01
00
10
01
00
10
01
00
10
01
00
10
01
00
10
01
00
10
01
00
10
01
00
10
01
00
10
01
00
10
01
00
10
01
00
10
01
00
10
01
00
10
01
00
10
01
00
10
01
00
10
01
00
10
01
00
10
01
00
10
01
00
10
01
00
10
01
00
10
01
00
10
01
00
10
01
00
10
01
00
10
01
00
10
01
00
10
01
00
10
01
00
10
01
00
10
01
00
10
01
00
10
01
00
10
01
00
10
01
00
10
01
00
10
01
00
10
01
00
10
01
00
00
10
01
00
10
01
00
10
01
00
10
01
00
10
01
00
10
01
00
10
01
00
10
01
00
10
01
00
10
01
00
10
01
00
10
01
00
10
01
00
10
01
00
10
01
00
10
01
00
10
01
00
10
01
00
10
01
00
10
01
00
10
01
00
10
01
00
10
01
00
10
01
00
10
01
00
10
01
00
10
01
00
10
01
00
10
01
00
10
01
00
10
01
00
10
01
00
10
01
00
10
01
00
10
01
00
10
01
00
10
01
00
10
01
00
10
01
00
10
01
00
10
01
00
10
01
00
10
01
00
10
01
00
10
01
00
10
01
00
10
01
00
10
01
00
10
01
00
10
01
00
10
01
00
10
01
00
10
01
00
10
01
00
10
01
00
10
01
00
10
01
00
10
01
00
10
01
00
10
01
00
10
01
00
10
01
00
10
01
00
10
01
00
10
01
00
10
01
00
10
01
00
10
01
00
10
01
00
10
01
00
10
01
00
10
01
00
10
01
00
10
01
00
10
01
00
10
01
00
10
01
00
10
01
00
10
01
00
10
01
00
10
01
01
00
10
01
00
10
01
00
10
01
00
10
01
00
10
01
00
10
01
00
10
01
00
10
01
00
10
01
00
10
01
00
10
01
00
10
01
00
10
01
00
10
01
00
10
01
00
10
01
00
10
01
00
10
01
00
10
01
00
10
01
00
10
01
00
10
01
00
10
01
00
10
01
00
10
01
00
10
01
00
10
01
00
10
01
00
10
01
00
10
01
00
10
01
00
10
01
00
10
01
00
10
01
00
10
01
00
10
01
00
10
01
00
10
01
00
10
01
00
10
01
00
10
01
00
10
01
00
10
01
00
10
01
00
10
01
00
10
01
00
10
01
00
10
01
00
10
01
00
10
01
00
10
01
00
10
01
00
10
01
00
10
01
00
10
01
00
10
01
00
10
01
00
10
01
00
10
01
00
10
01
00
10
01
00
10
01
00
10
01
00
10
01
00
10
01
00
10
01
00
10
01
00
10
01
00
10
01
00
10
01
00
10
01
00
10
01
00
10
01
00
10
01
00
10
01
00
10
01
00
10
01
00
10
01
00
10
01
00
10
01
00
10
10
01
00
10
01
00
10
01
00
10
01
00
10
01
00
10
01
00
10
01
00
10
01
00
10
01
00
10
01
00
10
01
00
10
01
00
10
01
00
10
01
00
10
01
00
10
01
00
10
01
00
10
01
00
10
01
00
10
01
00
10
01
00
10
01
00
10
01
00
10
01
00
10
01
00
10
01
00
10
01
00
10
01
00
10
01
00
10
01
00
10
01
00
10
01
00
10
01
00
10
01
00
10
01
00
10
01
00
10
01
00
10
01
00
10
01
00
10
01
00
10
01
00
10
01
00
10
01
00
10
01
00
10
01
00
10
01
00
10
01
00
10
01
00
10
01
00
10
01
00
10
01
00
10
01
00
10
01
00
10
01
00
10
01
00
10
01
00
10
01
00
10
01
00
10
01
00
10
01
00
10
01
00
10
01
00
10
01
00
10
01
00
10
01
00
10
01
00
10
01
00
10
01
00
10
01
00
10
01
00
10
01
00
10
01
00
10
01
00
10
01
00
10
01
00
10
01
00
10
01
00
10
01
00
10
01
00
10
01
00
10
01
00
00
10
01
00
10
01
00
10
01
00
10
01
00
10
01
00
10
01
00
10
01
00
10
01
00
10
01
00
10
01
00
10
01
00
10
01
00
10
01
00
10
01
00
10
01
00
10
01
00
10
01
00
10
01
00
10
01
00
10
01
00
10
01
00
10
01
00
10
01
00
10
01
00
10
01
00
10
01
00
10
01
00
10
01
00
10
01
00
10
01
00
10
01
00
10
01
00
10
01
00
10
01
00
10
01
00
10
01
00
10
01
00
10
01
00
10
01
00
10
01
00
10
01
00
10
01
00
10
01
00
10
01
00
10
01
00
10
01
00
10
01
00
10
01
00
10
01
00
10
01
00
10
01
00
10
01
00
10
01
00
10
01
00
10
01
00
10
01
00
10
01
00
10
01
00
10
01
00
10
01
00
10
01
00
10
01
00
10
01
00
10
01
00
10
01
00
10
01
00
10
01
00
10
01
00
10
01
00
10
01
00
10
01
00
10
01
00
10
01
00
10
01
00
10
01
00
10
01
00
10
01
00
10
01
00
10
01
00
10
01
00
10
01
01
00
10
01
00
10
01
00
10
01
00
10
01
00
10
01
00
10
01
00
10
01
00
10
01
00
10
01
00
10
01
00
10
01
00
10
01
00
10
01
00
10
01
00
10
01
00
10
01
00
10
01
00
10
01
00
10
01
00
10
01
00
10
01
00
10
01
00
10
01
00
10
01
00
10
01
00
10
01
00
10
01
00
10
01
00
10
01
00
10
01
00
10
01
00
10
01
00
10
01
00
10
01
00
10
01
00
10
01
00
10
01
00
10
01
00
10
01
00
10
01
00
10
01
00
10
01
00
10
01
00
10
01
00
10
01
00
10
01
00
10
01
00
10
01
00
10
01
00
10
01
00
10
01
00
10
01
00
10
01
00
10
01
00
10
01
00
10
01
00
10
01
00
10
01
00
10
01
00
10
01
00
10
01
00
10
01
00
10
01
00
10
01
00
10
01
00
10
01
00
10
01
00
10
01
00
10
01
00
10
01
00
10
01
00
10
01
00
10
01
00
10
01
00
10
01
00
10
01
00
10
01
00
10
01
00
10
01
00
10
01
00
10
10
01
00
10
01
00
10
01
00
10
01
00
10
01
00
10
01
00
10
01
00
10
01
00
10
01
00
10
01
00
10
01
00
10
01
00
10
01
00
10
01
00
10
01
00
10
01
00
10
01
00
10
01
00
10
01
00
10
01
00
10
01
00
10
01
00
10
01
00
10
01
00
10
01
00
10
01
00
10
01
00
10
01
00
10
01
00
10
01
00
10
01
00
10
01
00
10
01
00
10
01
00
10
01
00
10
01
00
10
01
00
10
01
00
10
01
00
10
01
00
10
01
00
10
01
00
10
01
00
10
01
00
10
01
00
10
01
00
10
01
00
10
01
00
10
01
00
10
01
00
10
01
00
10
01
00
10
01
00
10
01
00
10
01
00
10
01
00
10
01
00
10
01
00
10
01
00
10
01
00
10
01
00
10
01
00
10
01
00
10
01
00
10
01
00
10
01
00
10
01
00
10
01
00
10
01
00
10
01
00
10
01
00
10
01
00
10
01
00
10
01
00
10
01
00
10
01
00
10
01
00
10
01
00
10
01
00
10
01
00
10
01
00
00
10
01
00
10
01
00
10
01
00
10
01
00
10
01
00
10
01
00
10
01
00
10
01
00
10
01
00
10
01
00
10
01
00
10
01
00
10
01
00
10
01
00
10
01
00
10
01
00
10
01
00
10
01
00
10
01
00
10
01
00
10
01
00
10
01
00
10
01
00
10
01
00
10
01
00
10
01
00
10
01
00
10
01
00
10
01
00
10
01
00
10
01
00
10
01
00
10
01
00
10
01
00
10
01
00
10
01
00
10
01
00
10
01
00
10
01
00
10
01
00
10
01
00
10
01
00
10
01
00
10
01
00
10
01
00
10
01
00
10
01
00
10
01
00
10
01
00
10
01
00
10
01
00
10
01
00
10
01
00
10
01
00
10
01
00
10
01
00
10
01
00
10
01
00
10
01
00
10
01
00
10
01
00
10
01
00
10
01
00
10
01
00
10
01
00
10
01
00
10
01
00
10
01
00
10
01
00
10
01
00
10
01
00
10
01
00
10
01
00
10
01
00
10
01
00
10
01
00
10
01
00
10
01
00
10
01
00
10
01
00
10
01
01
00
10
01
00
10
01
00
10
01
00
10
01
00
10
01
00
10
01
00
10
01
00
10
01
00
10
01
00
10
01
00
10
01
00
10
01
00
10
01
00
10
01
00
10
01
00
10
01
00
10
01
00
10
01
00
10
01
00
10
01
00
10
01
00
10
01
00
10
01
00
10
01
00
10
01
00
10
01
00
10
01
00
10
01
00
10
01
00
10
01
00
10
01
00
10
01
00
10
01
00
10
01
00
10
01
00
10
01
00
10
01
00
10
01
00
10
01
00
10
01
00
10
01
00
10
01
00
10
01
00
10
01
00
10
01
00
10
01
00
10
01
00
10
01
00
10
01
00
10
01
00
10
01
00
10
01
00
10
01
00
10
01
00
10
01
00
10
01
00
10
01
00
10
01
00
10
01
00
10
01
00
10
01
00
10
01
00
10
01
00
10
01
00
10
01
00
10
01
00
10
01
00
10
01
00
10
01
00
10
01
00
10
01
00
10
01
00
10
01
00
10
01
00
10
01
00
10
01
00
10
01
00
10
01
00
10
01
00
10
01
00
10
10
01
00
10
01
00
10
01
00
10
01
00
10
01
00
10
01
00
10
01
00
10
01
00
10
01
00
10
01
00
10
01
00
10
01
00
10
01
00
10
01
00
10
01
00
10
01
00
10
01
00
10
01
00
10
01
00
10
01
00
10
01
00
10
01
00
10
01
00
10
01
00
10
01
00
10
01
00
10
01
00
10
01
00
10
01
00
10
01
00
10
01
00
10
01
00
10
01
00
10
01
00
10
01
00
10
01
00
10
01
00
10
01
00
10
01
00
10
01
00
10
01
00
10
01
00
10
01
00
10
01
00
10
01
00
10
01
00
10
01
00
10
01
00
10
01
00
10
01
00
10
01
00
10
01
00
10
01
00
10
01
00
10
01
00
10
01
00
10
01
00
10
01
00
10
01
00
10
01
00
10
01
00
10
01
00
10
01
00
10
01
00
10
01
00
10
01
00
10
01
00
10
01
00
10
01
00
10
01
00
10
01
00
10
01
00
10
01
00
10
01
00
10
01
00
10
01
00
10
01
00
10
01
00
10
01
00
10
01
00
10
01
00
00
10
01
00
10
01
00
10
01
00
10
01
00
10
01
00
10
01
00
10
01
00
10
01
00
10
01
00
10
01
00
10
01
00
10
01
00
10
01
00
10
01
00
10
01
00
10
01
00
10
01
00
10
01
00
10
01
00
10
01
00
10
01
00
10
01
00
10
01
00
10
01
00
10
01
00
10
01
00
10
01
00
10
01
00
10
01
00
10
01
00
10
01
00
10
01
00
10
01
00
10
01
00
10
01
00
10
01
00
10
01
00
10
01
00
10
01
00
10
01
00
10
01
00
10
01
00
10
01
00
10
01
00
10
01
00
10
01
00
10
01
00
10
01
00
10
01
00
10
01
00
10
01
00
10
01
00
10
01
00
10
01
00
10
01
00
10
01
00
10
01
00
10
01
00
10
01
00
10
01
00
10
01
00
10
01
00
10
01
00
10
01
00
10
01
00
10
01
00
10
01
00
10
01
00
10
01
00
10
01
00
10
01
00
10
01
00
10
01
00
10
01
00
10
01
00
10
01
00
10
01
00
10
01
00
10
01
00
10
01
00
10
01
01
00
10
01
00
10
01
00
10
01
00
10
01
00
10
01
00
10
01
00
10
01
00
10
01
00
10
01
00
10
01
00
10
01
00
10
01
00
10
01
00
10
01
00
10
01
00
10
01
00
10
01
00
10
01
00
10
01
00
10
01
00
10
01
00
10
01
00
10
01
00
10
01
00
10
01
00
10
01
00
10
01
00
10
01
00
10
01
00
10
01
00
10
01
00
10
01
00
10
01
00
10
01
00
10
01
00
10
01
00
10
01
00
10
01
00
10
01
00
10
01
00
10
01
00
10
01
00
10
01
00
10
01
00
10
01
00
10
01
00
10
01
00
10
01
00
10
01
00
10
01
00
10
01
00
10
01
00
10
01
00
10
01
00
10
01
00
10
01
00
10
01
00
10
01
00
10
01
00
10
01
00
10
01
00
10
01
00
10
01
00
10
01
00
10
01
00
10
01
00
10
01
00
10
01
00
10
01
00
10
01
00
10
01
00
10
01
00
10
01
00
10
01
00
10
01
00
10
01
00
10
01
00
10
01
00
10
01
00
10
01
00
10
10
01
00
10
01
00
10
01
00
10
01
00
10
01
00
10
01
00
10
01
00
10
01
00
10
01
00
10
01
00
10
01
00
10
01
00
10
01
00
10
01
00
10
01
00
10
01
00
10
01
00
10
01
00
10
01
00
10
01
00
10
01
00
10
01
00
10
01
00
10
01
00
10
01
00
10
01
00
10
01
00
10
01
00
10
01
00
10
01
00
10
01
00
10
01
00
10
01
00
10
01
00
10
01
00
10
01
00
10
01
00
10
01
00
10
01
00
10
01
00
10
01
00
10
01
00
10
01
00
10
01
00
10
01
00
10
01
00
10
01
00
10
01
00
10
01
00
10
01
00
10
01
00
10
01
00
10
01
00
10
01
00
10
01
00
10
01
00
10
01
00
10
01
00
10
01
00
10
01
00
10
01
00
10
01
00
10
01
00
10
01
00
10
01
00
10
01
00
10
01
00
10
01
00
10
01
00
10
01
00
10
01
00
10
01
00
10
01
00
10
01
00
10
01
00
10
01
00
10
01
00
10
01
00
10
01
00
10
01
00
10
01
00
00
10
01
00
10
01
00
10
01
00
10
01
00
10
01
00
10
01
00
10
01
00
10
01
00
10
01
00
10
01
00
10
01
00
10
01
00
10
01
00
10
01
00
10
01
00
10
01
00
10
01
00
10
01
00
10
01
00
10
01
00
10
01
00
10
01
00
10
01
00
10
01
00
10
01
00
10
01
00
10
01
00
10
01
00
10
01
00
10
01
00
10
01
00
10
01
00
10
01
00
10
01
00
10
01
00
10
01
00
10
01
00
10
01
00
10
01
00
10
01
00
10
01
00
10
01
00
10
01
00
10
01
00
10
01
00
10
01
00
10
01
00
10
01
00
10
01
00
10
01
00
10
01
00
10
01
00
10
01
00
10
01
00
10
01
00
10
01
00
10
01
00
10
01
00
10
01
00
10
01
00
10
01
00
10
01
00
10
01
00
10
01
00
10
01
00
10
01
00
10
01
00
10
01
00
10
01
00
10
01
00
10
01
00
10
01
00
10
01
00
10
01
00
10
01
00
10
01
00
10
01
00
10
01
00
10
01
00
10
01
00
10
01
01
00
10
01
00
10
01
00
10
01
00
10
01
00
10
01
00
10
01
00
10
01
00
10
01
00
10
01
00
10
01
00
10
01
00
10
01
00
10
01
00
10
01
00
10
01
00
10
01
00
10
01
00
10
01
00
10
01
00
10
01
00
10
01
00
10
01
00
10
01
00
10
01
00
10
01
00
10
01
00
10
01
00
10
01
00
10
01
00
10
01
00
10
01
00
10
01
00
10
01
00
10
01
00
10
01
00
10
01
00
10
01
00
10
01
00
10
01
00
10
01
00
10
01
00
10
01
00
10
01
00
10
01
00
10
01
00
10
01
00
10
01
00
10
01
00
10
01
00
10
01
00
10
01
00
10
01
00
10
01
00
10
01
00
10
01
00
10
01
00
10
01
00
10
01
00
10
01
00
10
01
00
10
01
00
10
01
00
10
01
00
10
01
00
10
01
00
10
01
00
10
01
00
10
01
00
10
01
00
10
01
00
10
01
00
10
01
00
10
01
00
10
01
00
10
01
00
10
01
00
10
01
00
10
01
00
10
01
00
10
01
00
10
10
01
00
10
01
00
10
01
00
10
01
00
10
01
00
10
01
00
10
01
00
10
01
00
10
01
00
10
01
00
10
01
00
10
01
00
10
01
00
10
01
00
10
01
00
10
01
00
10
01
00
10
01
00
10
01
00
10
01
00
10
01
00
10
01
00
10
01
00
10
01
00
10
01
00
10
01
00
10
01
00
10
01
00
10
01
00
10
01
00
10
01
00
10
01
00
10
01
00
10
01
00
10
01
00
10
01
00
10
01
00
10
01
00
10
01
00
10
01
00
10
01
00
10
01
00
10
01
00
10
01
00
10
01
00
10
01
00
10
01
00
10
01
00
10
01
00
10
01
00
10
01
00
10
01
00
10
01
00
10
01
00
10
01
00
10
01
00
10
01
00
10
01
00
10
01
00
10
01
00
10
01
00
10
01
00
10
01
00
10
01
00
10
01
00
10
01
00
10
01
00
10
01
00
10
01
00
10
01
00
10
01
00
10
01
00
10
01
00
10
01
00
10
01
00
10
01
00
10
01
00
10
01
00
10
01
00
10
01
00
10
01
00
00
10
01
00
10
01
00
10
01
00
10
01
00
10
01
00
10
01
00
10
01
00
10
01
00
10
01
00
10
01
00
10
01
00
10
01
00
10
01
00
10
01
00
10
01
00
10
01
00
10
01
00
10
01
00
10
01
00
10
01
00
10
01
00
10
01
00
10
01
00
10
01
00
10
01
00
10
01
00
10
01
00
10
01
00
10
01
00
10
01
00
10
01
00
10
01
00
10
01
00
10
01
00
10
01
00
10
01
00
10
01
00
10
01
00
10
01
00
10
01
00
10
01
00
10
01
00
10
01
00
10
01
00
10
01
00
10
01
00
10
01
00
10
01
00
10
01
00
10
01
00
10
01
00
10
01
00
10
01
00
10
01
00
10
01
00
10
01
00
10
01
00
10
01
00
10
01
00
10
01
00
10
01
00
10
01
00
10
01
00
10
01
00
10
01
00
10
01
00
10
01
00
10
01
00
10
01
00
10
01
00
10
01
00
10
01
00
10
01
00
10
01
00
10
01
00
10
01
00
10
01
00
10
01
00
10
01
00
10
01
00
10
01
01
00
10
01
00
10
01
00
10
01
00
10
01
00
10
01
00
10
01
00
10
01
00
10
01
00
10
01
00
10
01
00
10
01
00
10
01
00
10
01
00
10
01
00
10
01
00
10
01
00
10
01
00
10
01
00
10
01
00
10
01
00
10
01
00
10
01
00
10
01
00
10
01
00
10
01
00
10
01
00
10
01
00
10
01
00
10
01
00
10
01
00
10
01
00
10
01
00
10
01
00
10
01
00
10
01
00
10
01
00
10
01
00
10
01
00
10
01
00
10
01
00
10
01
00
10
01
00
10
01
00
10
01
00
10
01
00
10
01
00
10
01
00
10
01
00
10
01
00
10
01
00
10
01
00
10
01
00
10
01
00
10
01
00
10
01
00
10
01
00
10
01
00
10
01
00
10
01
00
10
01
00
10
01
00
10
01
00
10
01
00
10
01
00
10
01
00
10
01
00
10
01
00
10
01
00
10
01
00
10
01
00
10
01
00
10
01
00
10
01
00
10
01
00
10
01
00
10
01
00
10
01
00
10
01
00
10
01
00
10
01
00
10
10
01
00
10
01
00
10
01
00
10
01
00
10
01
00
10
01
00
10
01
00
10
01
00
10
01
00
10
01
00
10
01
00
10
01
00
10
01
00
10
01
00
10
01
00
10
01
00
10
01
00
10
01
00
10
01
00
10
01
00
10
01
00
10
01
00
10
01
00
10
01
00
10
01
00
10
01
00
10
01
00
10
01
00
10
01
00
10
01
00
10
01
00
10
01
00
10
01
00
10
01
00
10
01
00
10
01
00
10
01
00
10
01
00
10
01
00
10
01
00
10
01
00
10
01
00
10
01
00
10
01
00
10
01
00
10
01
00
10
01
00
10
01
00
10
01
00
10
01
00
10
01
00
10
01
00
10
01
00
10
01
00
10
01
00
10
01
00
10
01
00
10
01
00
10
01
00
10
01
00
10
01
00
10
01
00
10
01
00
10
01
00
10
01
00
10
01
00
10
01
00
10
01
00
10
01
00
10
01
00
10
01
00
10
01
00
10
01
00
10
01
00
10
01
00
10
01
00
10
01
00
10
01
00
10
01
00
10
01
00
10
01
00
00
10
01
00
10
01
00
10
01
00
10
01
00
10
01
00
10
01
00
10
01
00
10
01
00
10
01
00
10
01
00
10
01
00
10
01
00
10
01
00
10
01
00
10
01
00
10
01
00
10
01
00
10
01
00
10
01
00
10
01
00
10
01
00
10
01
00
10
01
00
10
01
00
10
01
00
10
01
00
10
01
00
10
01
00
10
01
00
10
01
00
10
01
00
10
01
00
10
01
00
10
01
00
10
01
00
10
01
00
10
01
00
10
01
00
10
01
00
10
01
00
10
01
00
10
01
00
10
01
00
10
01
00
10
01
00
10
01
00
10
01
00
10
01
00
10
01
00
10
01
00
10
01
00
10
01
00
10
01
00
10
01
00
10
01
00
10
01
00
10
01
00
10
01
00
10
01
00
10
01
00
10
01
00
10
01
00
10
01
00
10
01
00
10
01
00
10
01
00
10
01
00
10
01
00
10
01
00
10
01
00
10
01
00
10
01
00
10
01
00
10
01
00
10
01
00
10
01
00
10
01
00
10
01
00
10
01
00
10
01
00
10
01
01
00
10
01
00
10
01
00
10
01
00
10
01
00
10
01
00
10
01
00
10
01
00
10
01
00
10
01
00
10
01
00
10
01
00
10
01
00
10
01
00
10
01
00
10
01
00
10
01
00
10
01
00
10
01
00
10
01
00
10
01
00
10
01
00
10
01
00
10
01
00
10
01
00
10
01
00
10
01
00
10
01
00
10
01
00
10
01
00
10
01
00
10
01
00
10
01
00
10
01
00
10
01
00
10
01
00
10
01
00
10
01
00
10
01
00
10
01
00
10
01
00
10
01
00
10
01
00
10
01
00
10
01
00
10
01
00
10
01
00
10
01
00
10
01
00
10
01
00
10
01
00
10
01
00
10
01
00
10
01
00
10
01
00
10
01
00
10
01
00
10
01
00
10
01
00
10
01
00
10
01
00
10
01
00
10
01
00
10
01
00
10
01
00
10
01
00
10
01
00
10
01
00
10
01
00
10
01
00
10
01
00
10
01
00
10
01
00
10
01
00
10
01
00
10
01
00
10
01
00
10
01
00
10
01
00
10
01
00
10
01
00
10
10
01
00
10
01
00
10
01
00
10
01
00
10
01
00
10
01
00
10
01
00
10
01
00
10
01
00
10
01
00
10
01
00
10
01
00
10
01
00
10
01
00
10
01
00
10
01
00
10
01
00
10
01
00
10
01
00
10
01
00
10
01
00
10
01
00
10
01
00
10
01
00
10
01
00
10
01
00
10
01
00
10
01
00
10
01
00
10
01
00
10
01
00
10
01
00
10
01
00
10
01
00
10
01
00
10
01
00
10
01
00
10
01
00
10
01
00
10
01
00
10
01
00
10
01
00
10
01
00
10
01
00
10
01
00
10
01
00
10
01
00
10
01
00
10
01
00
10
01
00
10
01
00
10
01
00
10
01
00
10
01
00
10
01
00
10
01
00
10
01
00
10
01
00
10
01
00
10
01
00
10
01
00
10
01
00
10
01
00
10
01
00
10
01
00
10
01
00
10
01
00
10
01
00
10
01
00
10
01
00
10
01
00
10
01
00
10
01
00
10
01
00
10
01
00
10
01
00
10
01
00
10
01
00
10
01
00
10
01
00
10
01
00
00
10
01
00
10
01
00
10
01
00
10
01
00
10
01
00
10
01
00
10
01
00
10
01
00
10
01
00
10
01
00
10
01
00
10
01
00
10
01
00
10
01
00
10
01
00
10
01
00
10
01
00
10
01
00
10
01
00
10
01
00
10
01
00
10
01
00
10
01
00
10
01
00
10
01
00
10
01
00
10
01
00
10
01
00
10
01
00
10
01
00
10
01
00
10
01
00
10
01
00
10
01
00
10
01
00
10
01
00
10
01
00
10
01
00
10
01
00
10
01
00
10
01
00
10
01
00
10
01
00
10
01
00
10
01
00
10
01
00
10
01
00
10
01
00
10
01
00
10
01
00
10
01
00
10
01
00
10
01
00
10
01
00
10
01
00
10
01
00
10
01
00
10
01
00
10
01
00
10
01
00
10
01
00
10
01
00
10
01
00
10
01
00
10
01
00
10
01
00
10
01
00
10
01
00
10
01
00
10
01
00
10
01
00
10
01
00
10
01
00
10
01
00
10
01
00
10
01
00
10
01
00
10
01
00
10
01
00
10
01
00
10
01
01
00
10
01
00
10
01
00
10
01
00
10
01
00
10
01
00
10
01
00
10
01
00
10
01
00
10
01
00
10
01
00
10
01
00
10
01
00
10
01
00
10
01
00
10
01
00
10
01
00
10
01
00
10
01
00
10
01
00
10
01
00
10
01
00
10
01
00
10
01
00
10
01
00
10
01
00
10
01
00
10
01
00
10
01
00
10
01
00
10
01
00
10
01
00
10
01
00
10
01
00
10
01
00
10
01
00
10
01
00
10
01
00
10
01
00
10
01
00
10
01
00
10
01
00
10
01
00
10
01
00
10
01
00
10
01
00
10
01
00
10
01
00
10
01
00
10
01
00
10
01
00
10
01
00
10
01
00
10
01
00
10
01
00
10
01
00
10
01
00
10
01
00
10
01
00
10
01
00
10
01
00
10
01
00
10
01
00
10
01
00
10
01
00
10
01
00
10
01
00
10
01
00
10
01
00
10
01
00
10
01
00
10
01
00
10
01
00
10
01
00
10
01
00
10
01
00
10
01
00
10
01
00
10
01
00
10
01
00
10
01
00
10
10
01
00
10
01
00
10
01
00
10
01
00
10
01
00
10
01
00
10
01
00
10
01
00
10
01
00
10
01
00
10
01
00
10
01
00
10
01
00
10
01
00
10
01
00
10
01
00
10
01
00
10
01
00
10
01
00
10
01
00
10
01
00
10
01
00
10
01
00
10
01
00
10
01
00
10
01
00
10
01
00
10
01
00
10
01
00
10
01
00
10
01
00
10
01
00
10
01
00
10
01
00
10
01
00
10
01
00
10
01
00
10
01
00
10
01
00
10
01
00
10
01
00
10
01
00
10
01
00
10
01
00
10
01
00
10
01
00
10
01
00
10
01
00
10
01
00
10
01
00
10
01
00
10
01
00
10
01
00
10
01
00
10
01
00
10
01
00
10
01
00
10
01
00
10
01
00
10
01
00
10
01
00
10
01
00
10
01
00
10
01
00
10
01
00
10
01
00
10
01
00
10
01
00
10
01
00
10
01
00
10
01
00
10
01
00
10
01
00
10
01
00
10
01
00
10
01
00
10
01
00
10
01
00
10
01
00
10
01
00
10
01
00
00
10
01
00
10
01
00
10
01
00
10
01
00
10
01
00
10
01
00
10
01
00
10
01
00
10
01
00
10
01
00
10
01
00
10
01
00
10
01
00
10
01
00
10
01
00
10
01
00
10
01
00
10
01
00
10
01
00
10
01
00
10
01
00
10
01
00
10
01
00
10
01
00
10
01
00
10
01
00
10
01
00
10
01
00
10
01
00
10
01
00
10
01
00
10
01
00
10
01
00
10
01
00
10
01
00
10
01
00
10
01
00
10
01
00
10
01
00
10
01
00
10
01
00
10
01
00
10
01
00
10
01
00
10
01
00
10
01
00
10
01
00
10
01
00
10
01
00
10
01
00
10
01
00
10
01
00
10
01
00
10
01
00
10
01
00
10
01
00
10
01
00
10
01
00
10
01
00
10
01
00
10
01
00
10
01
00
10
01
00
10
01
00
10
01
00
10
01
00
10
01
00
10
01
00
10
01
00
10
01
00
10
01
00
10
01
00
10
01
00
10
01
00
10
01
00
10
01
00
10
01
00
10
01
00
10
01
00
10
01
00
10
01
01
00
10
01
00
10
01
00
10
01
00
10
01
00
10
01
00
10
01
00
10
01
00
10
01
00
10
01
00
10
01
00
10
01
00
10
01
00
10
01
00
10
01
00
10
01
00
10
01
00
10
01
00
10
01
00
10
01
00
10
01
00
10
01
00
10
01
00
10
01
00
10
01
00
10
01
00
10
01
00
10
01
00
10
01
00
10
01
00
10
01
00
10
01
00
10
01
00
10
01
00
10
01
00
10
01
00
10
01
00
10
01
00
10
01
00
10
01
00
10
01
00
10
01
00
10
01
00
10
01
00
10
01
00
10
01
00
10
01
00
10
01
00
10
01
00
10
01
00
10
01
00
10
01
00
10
01
00
10
01
00
10
01
00
10
01
00
10
01
00
10
01
00
10
01
00
10
01
00
10
01
00
10
01
00
10
01
00
10
01
00
10
01
00
10
01
00
10
01
00
10
01
00
10
01
00
10
01
00
10
01
00
10
01
00
10
01
00
10
01
00
10
01
00
10
01
00
10
01
00
10
01
00
10
01
00
10
01
00
10
01
00
10
10
01
00
10
01
00
10
01
00
10
01
00
10
01
00
10
01
00
10
01
00
10
01
00
10
01
00
10
01
00
10
01
00
10
01
00
10
01
00
10
01
00
10
01
00
10
01
00
10
01
00
10
01
00
10
01
00
10
01
00
10
01
00
10
01
00
10
01
00
10
01
00
10
01
00
10
01
00
10
01
00
10
01
00
10
01
00
10
01
00
10
01
00
10
01
00
10
01
00
10
01
00
10
01
00
10
01
00
10
01
00
10
01
00
10
01
00
10
01
00
10
01
00
10
01
00
10
01
00
10
01
00
10
01
00
10
01
00
10
01
00
10
01
00
10
01
00
10
01
00
10
01
00
10
01
00
10
01
00
10
01
00
10
01
00
10
01
00
10
01
00
10
01
00
10
01
00
10
01
00
10
01
00
10
01
00
10
01
00
10
01
00
10
01
00
10
01
00
10
01
00
10
01
00
10
01
00
10
01
00
10
01
00
10
01
00
10
01
00
10
01
00
10
01
00
10
01
00
10
01
00
10
01
00
10
01
00
10
01
00
10
01
00
00
10
01
00
10
01
00
10
01
00
10
01
00
10
01
00
10
01
00
10
01
00
10
01
00
10
01
00
10
01
00
10
01
00
10
01
00
10
01
00
10
01
00
10
01
00
10
01
00
10
01
00
10
01
00
10
01
00
10
01
00
10
01
00
10
01
00
10
01
00
10
01
00
10
01
00
10
01
00
10
01
00
10
01
00
10
01
00
10
01
00
10
01
00
10
01
00
10
01
00
10
01
00
10
01
00
10
01
00
10
01
00
10
01
00
10
01
00
10
01
00
10
01
00
10
01
00
10
01
00
10
01
00
10
01
00
10
01
00
10
01
00
10
01
00
10
01
00
10
01
00
10
01
00
10
01
00
10
01
00
10
01
00
10
01
00
10
01
00
10
01
00
10
01
00
10
01
00
10
01
00
10
01
00
10
01
00
10
01
00
10
01
00
10
01
00
10
01
00
10
01
00
10
01
00
10
01
00
10
01
00
10
01
00
10
01
00
10
01
00
10
01
00
10
01
00
10
01
00
10
01
00
10
01
00
10
01
00
10
01
00
10
01
01
00
10
01
00
10
01
00
10
01
00
10
01
00
10
01
00
10
01
00
10
01
00
10
01
00
10
01
00
10
01
00
10
01
00
10
01
00
10
01
00
10
01
00
10
01
00
10
01
00
10
01
00
10
01
00
10
01
00
10
01
00
10
01
00
10
01
00
10
01
00
10
01
00
10
01
00
10
01
00
10
01
00
10
01
00
10
01
00
10
01
00
10
01
00
10
01
00
10
01
00
10
01
00
10
01
00
10
01
00
10
01
00
10
01
00
10
01
00
10
01
00
10
01
00
10
01
00
10
01
00
10
01
00
10
01
00
10
01
00
10
01
00
10
01
00
10
01
00
10
01
00
10
01
00
10
01
00
10
01
00
10
01
00
10
01
00
10
01
00
10
01
00
10
01
00
10
01
00
10
01
00
10
01
00
10
01
00
10
01
00
10
01
00
10
01
00
10
01
00
10
01
00
10
01
00
10
01
00
10
01
00
10
01
00
10
01
00
10
01
00
10
01
00
10
01
00
10
01
00
10
01
00
10
01
00
10
01
00
10
01
00
10
10
01
00
10
01
00
10
01
00
10
01
00
10
01
00
10
01
00
10
01
00
10
01
00
10
01
00
10
01
00
10
01
00
10
01
00
10
01
00
10
01
00
10
01
00
10
01
00
10
01
00
10
01
00
10
01
00
10
01
00
10
01
00
10
01
00
10
01
00
10
01
00
10
01
00
10
01
00
10
01
00
10
01
00
10
01
00
10
01
00
10
01
00
10
01
00
10
01
00
10
01
00
10
01
00
10
01
00
10
01
00
10
01
00
10
01
00
10
01
00
10
01
00
10
01
00
10
01
00
10
01
00
10
01
00
10
01
00
10
01
00
10
01
00
10
01
00
10
01
00
10
01
00
10
01
00
10
01
00
10
01
00
10
01
00
10
01
00
10
01
00
10
01
00
10
01
00
10
01
00
10
01
00
10
01
00
10
01
00
10
01
00
10
01
00
10
01
00
10
01
00
10
01
00
10
01
00
10
01
00
10
01
00
10
01
00
10
01
00
10
01
00
10
01
00
10
01
00
10
01
00
10
01
00
10
01
00
10
01
00
10
01
00
00
10
01
00
10
01
00
10
01
00
10
01
00
10
01
00
10
01
00
10
01
00
10
01
00
10
01
00
10
01
00
10
01
00
10
01
00
10
01
00
10
01
00
10
01
00
10
01
00
10
01
00
10
01
00
10
01
00
10
01
00
10
01
00
10
01
00
10
01
00
10
01
00
10
01
00
10
01
00
10
01
00
10
01
00
10
01
00
10
01
00
10
01
00
10
01
00
10
01
00
10
01
00
10
01
00
10
01
00
10
01
00
10
01
00
10
01
00
10
01
00
10
01
00
10
01
00
10
01
00
10
01
00
10
01
00
10
01
00
10
01
00
10
01
00
10
01
00
10
01
00
10
01
00
10
01
00
10
01
00
10
01
00
10
01
00
10
01
00
10
01
00
10
01
00
10
01
00
10
01
00
10
01
00
10
01
00
10
01
00
10
01
00
10
01
00
10
01
00
10
01
00
10
01
00
10
01
00
10
01
00
10
01
00
10
01
00
10
01
00
10
01
00
10
01
00
10
01
00
10
01
00
10
01
00
10
01
00
10
01
00
10
01
01
00
10
01
00
10
01
00
10
01
00
10
01
00
10
01
00
10
01
00
10
01
00
10
01
00
10
01
00
10
01
00
10
01
00
10
01
00
10
01
00
10
01
00
10
01
00
10
01
00
10
01
00
10
01
00
10
01
00
10
01
00
10
01
00
10
01
00
10
01
00
10
01
00
10
01
00
10
01
00
10
01
00
10
01
00
10
01
00
10
01
00
10
01
00
10
01
00
10
01
00
10
01
00
10
01
00
10
01
00
10
01
00
10
01
00
10
01
00
10
01
00
10
01
00
10
01
00
10
01
00
10
01
00
10
01
00
10
01
00
10
01
00
10
01
00
10
01
00
10
01
00
10
01
00
10
01
00
10
01
00
10
01
00
10
01
00
10
01
00
10
01
00
10
01
00
10
01
00
10
01
00
10
01
00
10
01
00
10
01
00
10
01
00
10
01
00
10
01
00
10
01
00
10
01
00
10
01
00
10
01
00
10
01
00
10
01
00
10
01
00
10
01
00
10
01
00
10
01
00
10
01
00
10
01
00
10
01
00
10
01
00
10
10
01
00
10
01
00
10
01
00
10
01
00
10
01
00
10
01
00
10
01
00
10
01
00
10
01
00
10
01
00
10
01
00
10
01
00
10
01
00
10
01
00
10
01
00
10
01
00
10
01
00
10
01
00
10
01
00
10
01
00
10
01
00
10
01
00
10
01
00
10
01
00
10
01
00
10
01
00
10
01
00
10
01
00
10
01
00
10
01
00
10
01
00
10
01
00
10
01
00
10
01
00
10
01
00
10
01
00
10
01
00
10
01
00
10
01
00
10
01
00
10
01
00
10
01
00
10
01
00
10
01
00
10
01
00
10
01
00
10
01
00
10
01
00
10
01
00
10
01
00
10
01
00
10
01
00
10
01
00
10
01
00
10
01
00
10
01
00
10
01
00
10
01
00
10
01
00
10
01
00
10
01
00
10
01
00
10
01
00
10
01
00
10
01
00
10
01
00
10
01
00
10
01
00
10
01
00
10
01
00
10
01
00
10
01
00
10
01
00
10
01
00
10
01
00
10
01
00
10
01
00
10
01
00
10
01
00
10
01
00
10
01
00
00
10
01
00
10
01
00
10
01
00
10
01
00
10
01
00
10
01
00
10
01
00
10
01
00
10
01
00
10
01
00
10
01
00
10
01
00
10
01
00
10
01
00
10
01
00
10
01
00
10
01
00
10
01
00
10
01
00
10
01
00
10
01
00
10
01
00
10
01
00
10
01
00
10
01
00
10
01
00
10
01
00
10
01
00
10
01
00
10
01
00
10
01
00
10
01
00
10
01
00
10
01
00
10
01
00
10
01
00
10
01
00
10
01
00
10
01
00
10
01
00
10
01
00
10
01
00
10
01
00
10
01
00
10
01
00
10
01
00
10
01
00
10
01
00
10
01
00
10
01
00
10
01
00
10
01
00
10
01
00
10
01
00
10
01
00
10
01
00
10
01
00
10
01
00
10
01
00
10
01
00
10
01
00
10
01
00
10
01
00
10
01
00
10
01
00
10
01
00
10
01
00
10
01
00
10
01
00
10
01
00
10
01
00
10
01
00
10
01
00
10
01
00
10
01
00
10
01
00
10
01
00
10
01
00
10
01
00
10
01
00
10
01
01
00
10
01
00
10
01
00
10
01
00
10
01
00
10
01
00
10
01
00
10
01
00
10
01
00
10
01
00
10
01
00
10
01
00
10
01
00
10
01
00
10
01
00
10
01
00
10
01
00
10
01
00
10
01
00
10
01
00
10
01
00
10
01
00
10
01
00
10
01
00
10
01
00
10
01
00
10
01
00
10
01
00
10
01
00
10
01
00
10
01
00
10
01
00
10
01
00
10
01
00
10
01
00
10
01
00
10
01
00
10
01
00
10
01
00
10
01
00
10
01
00
10
01
00
10
01
00
10
01
00
10
01
00
10
01
00
10
01
00
10
01
00
10
01
00
10
01
00
10
01
00
10
01
00
10
01
00
10
01
00
10
01
00
10
01
00
10
01
00
10
01
00
10
01
00
10
01
00
10
01
00
10
01
00
10
01
00
10
01
00
10
01
00
10
01
00
10
01
00
10
01
00
10
01
00
10
01
00
10
01
00
10
01
00
10
01
00
10
01
00
10
01
00
10
01
00
10
01
00
10
01
00
10
01
00
10
01
00
10
01
00
10
10
01
00
10
01
00
10
01
00
10
01
00
10
01
00
10
01
00
10
01
00
10
01
00
10
01
00
10
01
00
10
01
00
10
01
00
10
01
00
10
01
00
10
01
00
10
01
00
10
01
00
10
01
00
10
01
00
10
01
00
10
01
00
10
01
00
10
01
00
10
01
00
10
01
00
10
01
00
10
01
00
10
01
00
10
01
00
10
01
00
10
01
00
10
01
00
10
01
00
10
01
00
10
01
00
10
01
00
10
01
00
10
01
00
10
01
00
10
01
00
10
01
00
10
01
00
10
01
00
10
01
00
10
01
00
10
01
00
10
01
00
10
01
00
10
01
00
10
01
00
10
01
00
10
01
00
10
01
00
10
01
00
10
01
00
10
01
00
10
01
00
10
01
00
10
01
00
10
01
00
10
01
00
10
01
00
10
01
00
10
01
00
10
01
00
10
01
00
10
01
00
10
01
00
10
01
00
10
01
00
10
01
00
10
01
00
10
01
00
10
01
00
10
01
00
10
01
00
10
01
00
10
01
00
10
01
00
10
01
00
10
01
00
00
10
01
00
10
01
00
10
01
00
10
01
00
10
01
00
10
01
00
10
01
00
10
01
00
10
01
00
10
01
00
10
01
00
10
01
00
10
01
00
10
01
00
10
01
00
10
01
00
10
01
00
10
01
00
10
01
00
10
01
00
10
01
00
10
01
00
10
01
00
10
01
00
10
01
00
10
01
00
10
01
00
10
01
00
10
01
00
10
01
00
10
01
00
10
01
00
10
01
00
10
01
00
10
01
00
10
01
00
10
01
00
10
01
00
10
01
00
10
01
00
10
01
00
10
01
00
10
01
00
10
01
00
10
01
00
10
01
00
10
01
00
10
01
00
10
01
00
10
01
00
10
01
00
10
01
00
10
01
00
10
01
00
10
01
00
10
01
00
10
01
00
10
01
00
10
01
00
10
01
00
10
01
00
10
01
00
10
01
00
10
01
00
10
01
00
10
01
00
10
01
00
10
01
00
10
01
00
10
01
00
10
01
00
10
01
00
10
01
00
10
01
00
10
01
00
10
01
00
10
01
00
10
01
00
10
01
00
10
01
00
10
01
01
00
10
01
00
10
01
00
10
01
00
10
01
00
10
01
00
10
01
00
10
01
00
10
01
00
10
01
00
10
01
00
10
01
00
10
01
00
10
01
00
10
01
00
10
01
00
10
01
00
10
01
00
10
01
00
10
01
00
10
01
00
10
01
00
10
01
00
10
01
00
10
01
00
10
01
00
10
01
00
10
01
00
10
01
00
10
01
00
10
01
00
10
01
00
10
01
00
10
01
00
10
01
00
10
01
00
10
01
00
10
01
00
10
01
00
10
01
00
10
01
00
10
01
00
10
01
00
10
01
00
10
01
00
10
01
00
10
01
00
10
01
00
10
01
00
10
01
00
10
01
00
10
01
00
10
01
00
10
01
00
10
01
00
10
01
00
10
01
00
10
01
00
10
01
00
10
01
00
10
01
00
10
01
00
10
01
00
10
01
00
10
01
00
10
01
00
10
01
00
10
01
00
10
01
00
10
01
00
10
01
00
10
01
00
10
01
00
10
01
00
10
01
00
10
01
00
10
01
00
10
01
00
10
01
00
10
01
00
10
01
00
10
10
01
00
10
01
00
10
01
00
10
01
00
10
01
00
10
01
00
10
01
00
10
01
00
10
01
00
10
01
00
10
01
00
10
01
00
10
01
00
10
01
00
10
01
00
10
01
00
10
01
00
10
01
00
10
01
00
10
01
00
10
01
00
10
01
00
10
01
00
10
01
00
10
01
00
10
01
00
10
01
00
10
01
00
10
01
00
10
01
00
10
01
00
10
01
00
10
01
00
10
01
00
10
01
00
10
01
00
10
01
00
10
01
00
10
01
00
10
01
00
10
01
00
10
01
00
10
01
00
10
01
00
10
01
00
10
01
00
10
01
00
10
01
00
10
01
00
10
01
00
10
01
00
10
01
00
10
01
00
10
01
00
10
01
00
10
01
00
10
01
00
10
01
00
10
01
00
10
01
00
10
01
00
10
01
00
10
01
00
10
01
00
10
01
00
10
01
00
10
01
00
10
01
00
10
01
00
10
01
00
10
01
00
10
01
00
10
01
00
10
01
00
10
01
00
10
01
00
10
01
00
10
01
00
10
01
00
10
01
00
10
01
00
00
10
01
00
10
01
00
10
01
00
10
01
00
10
01
00
10
01
00
10
01
00
10
01
00
10
01
00
10
01
00
10
01
00
10
01
00
10
01
00
10
01
00
10
01
00
10
01
00
10
01
00
10
01
00
10
01
00
10
01
00
10
01
00
10
01
00
10
01
00
10
01
00
10
01
00
10
01
00
10
01
00
10
01
00
10
01
00
10
01
00
10
01
00
10
01
00
10
01
00
10
01
00
10
01
00
10
01
00
10
01
00
10
01
00
10
01
00
10
01
00
10
01
00
10
01
00
10
01
00
10
01
00
10
01
00
10
01
00
10
01
00
10
01
00
10
01
00
10
01
00
10
01
00
10
01
00
10
01
00
10
01
00
10
01
00
10
01
00
10
01
00
10
01
00
10
01
00
10
01
00
10
01
00
10
01
00
10
01
00
10
01
00
10
01
00
10
01
00
10
01
00
10
01
00
10
01
00
10
01
00
10
01
00
10
01
00
10
01
00
10
01
00
10
01
00
10
01
00
10
01
00
10
01
00
10
01
00
10
01
00
10
01
01
00
10
01
00
10
01
00
10
01
00
10
01
00
10
01
00
10
01
00
10
01
00
10
01
00
10
01
00
10
01
00
10
01
00
10
01
00
10
01
00
10
01
00
10
01
00
10
01
00
10
01
00
10
01
00
10
01
00
10
01
00
10
01
00
10
01
00
10
01
00
10
01
00
10
01
00
10
01
00
10
01
00
10
01
00
10
01
00
10
01
00
10
01
00
10
01
00
10
01
00
10
01
00
10
01
00
10
01
00
10
01
00
10
01
00
10
01
00
10
01
00
10
01
00
10
01
00
10
01
00
10
01
00
10
01
00
10
01
00
10
01
00
10
01
00
10
01
00
10
01
00
10
01
00
10
01
00
10
01
00
10
01
00
10
01
00
10
01
00
10
01
00
10
01
00
10
01
00
10
01
00
10
01
00
10
01
00
10
01
00
10
01
00
10
01
00
10
01
00
10
01
00
10
01
00
10
01
00
10
01
00
10
01
00
10
01
00
10
01
00
10
01
00
10
01
00
10
01
00
10
01
00
10
01
00
10
01
00
10
01
00
10
10
01
00
10
01
00
10
01
00
10
01
00
10
01
00
10
01
00
10
01
00
10
01
00
10
01
00
10
01
00
10
01
00
10
01
00
10
01
00
10
01
00
10
01
00
10
01
00
10
01
00
10
01
00
10
01
00
10
01
00
10
01
00
10
01
00
10
01
00
10
01
00
10
01
00
10
01
00
10
01
00
10
01
00
10
01
00
10
01
00
10
01
00
10
01
00
10
01
00
10
01
00
10
01
00
10
01
00
10
01
00
10
01
00
10
01
00
10
01
00
10
01
00
10
01
00
10
01
00
10
01
00
10
01
00
10
01
00
10
01
00
10
01
00
10
01
00
10
01
00
10
01
00
10
01
00
10
01
00
10
01
00
10
01
00
10
01
00
10
01
00
10
01
00
10
01
00
10
01
00
10
01
00
10
01
00
10
01
00
10
01
00
10
01
00
10
01
00
10
01
00
10
01
00
10
01
00
10
01
00
10
01
00
10
01
00
10
01
00
10
01
00
10
01
00
10
01
00
10
01
00
10
01
00
10
01
00
10
01
00
10
01
00
00
10
01
00
10
01
00
10
01
00
10
01
00
10
01
00
10
01
00
10
01
00
10
01
00
10
01
00
10
01
00
10
01
00
10
01
00
10
01
00
10
01
00
10
01
00
10
01
00
10
01
00
10
01
00
10
01
00
10
01
00
10
01
00
10
01
00
10
01
00
10
01
00
10
01
00
10
01
00
10
01
00
10
01
00
10
01
00
10
01
00
10
01
00
10
01
00
10
01
00
10
01
00
10
01
00
10
01
00
10
01
00
10
01
00
10
01
00
10
01
00
10
01
00
10
01
00
10
01
00
10
01
00
10
01
00
10
01
00
10
01
00
10
01
00
10
01
00
10
01
00
10
01
00
10
01
00
10
01
00
10
01
00
10
01
00
10
01
00
10
01
00
10
01
00
10
01
00
10
01
00
10
01
00
10
01
00
10
01
00
10
01
00
10
01
00
10
01
00
10
01
00
10
01
00
10
01
00
10
01
00
10
01
00
10
01
00
10
01
00
10
01
00
10
01
00
10
01
00
10
01
00
10
01
00
10
01
00
10
01
00
10
01
01
00
10
01
00
10
01
00
10
01
00
10
01
00
10
01
00
10
01
00
10
01
00
10
01
00
10
01
00
10
01
00
10
01
00
10
01
00
10
01
00
10
01
00
10
01
00
10
01
00
10
01
00
10
01
00
10
01
00
10
01
00
10
01
00
10
01
00
10
01
00
10
01
00
10
01
00
10
01
00
10
01
00
10
01
00
10
01
00
10
01
00
10
01
00
10
01
00
10
01
00
10
01
00
10
01
00
10
01
00
10
01
00
10
01
00
10
01
00
10
01
00
10
01
00
10
01
00
10
01
00
10
01
00
10
01
00
10
01
00
10
01
00
10
01
00
10
01
00
10
01
00
10
01
00
10
01
00
10
01
00
10
01
00
10
01
00
10
01
00
10
01
00
10
01
00
10
01
00
10
01
00
10
01
00
10
01
00
10
01
00
10
01
00
10
01
00
10
01
00
10
01
00
10
01
00
10
01
00
10
01
00
10
01
00
10
01
00
10
01
00
10
01
00
10
01
00
10
01
00
10
01
00
10
01
00
10
01
00
10
01
00
10
10
01
00
10
01
00
10
01
00
10
01
00
10
01
00
10
01
00
10
01
00
10
01
00
10
01
00
10
01
00
10
01
00
10
01
00
10
01
00
10
01
00
10
01
00
10
01
00
10
01
00
10
01
00
10
01
00
10
01
00
10
01
00
10
01
00
10
01
00
10
01
00
10
01
00
10
01
00
10
01
00
10
01
00
10
01
00
10
01
00
10
01
00
10
01
00
10
01
00
10
01
00
10
01
00
10
01
00
10
01
00
10
01
00
10
01
00
10
01
00
10
01
00
10
01
00
10
01
00
10
01
00
10
01
00
10
01
00
10
01
00
10
01
00
10
01
00
10
01
00
10
01
00
10
01
00
10
01
00
10
01
00
10
01
00
10
01
00
10
01
00
10
01
00
10
01
00
10
01
00
10
01
00
10
01
00
10
01
00
10
01
00
10
01
00
10
01
00
10
01
00
10
01
00
10
01
00
10
01
00
10
01
00
10
01
00
10
01
00
10
01
00
10
01
00
10
01
00
10
01
00
10
01
00
10
01
00
10
01
00
10
01
00
00
10
01
00
10
01
00
10
01
00
10
01
00
10
01
00
10
01
00
10
01
00
10
01
00
10
01
00
10
01
00
10
01
00
10
01
00
10
01
00
10
01
00
10
01
00
10
01
00
10
01
00
10
01
00
10
01
00
10
01
00
10
01
00
10
01
00
10
01
00
10
01
00
10
01
00
10
01
00
10
01
00
10
01
00
10
01
00
10
01
00
10
01
00
10
01
00
10
01
00
10
01
00
10
01
00
10
01
00
10
01
00
10
01
00
10
01
00
10
01
00
10
01
00
10
01
00
10
01
00
10
01
00
10
01
00
10
01
00
10
01
00
10
01
00
10
01
00
10
01
00
10
01
00
10
01
00
10
01
00
10
01
00
10
01
00
10
01
00
10
01
00
10
01
00
10
01
00
10
01
00
10
01
00
10
01
00
10
01
00
10
01
00
10
01
00
10
01
00
10
01
00
10
01
00
10
01
00
10
01
00
10
01
00
10
01
00
10
01
00
10
01
00
10
01
00
10
01
00
10
01
00
10
01
00
10
01
00
10
01
00
10
01
01
00
10
01
00
10
01
00
10
01
00
10
01
00
10
01
00
10
01
00
10
01
00
10
01
00
10
01
00
10
01
00
10
01
00
10
01
00
10
01
00
10
01
00
10
01
00
10
01
00
10
01
00
10
01
00
10
01
00
10
01
00
10
01
00
10
01
00
10
01
00
10
01
00
10
01
00
10
01
00
10
01
00
10
01
00
10
01
00
10
01
00
10
01
00
10
01
00
10
01
00
10
01
00
10
01
00
10
01
00
10
01
00
10
01
00
10
01
00
10
01
00
10
01
00
10
01
00
10
01
00
10
01
00
10
01
00
10
01
00
10
01
00
10
01
00
10
01
00
10
01
00
10
01
00
10
01
00
10
01
00
10
01
00
10
01
00
10
01
00
10
01
00
10
01
00
10
01
00
10
01
00
10
01
00
10
01
00
10
01
00
10
01
00
10
01
00
10
01
00
10
01
00
10
01
00
10
01
00
10
01
00
10
01
00
10
01
00
10
01
00
10
01
00
10
01
00
10
01
00
10
01
00
10
01
00
10
01
00
10
01
00
10
10
01
00
10
01
00
10
01
00
10
01
00
10
01
00
10
01
00
10
01
00
10
01
00
10
01
00
10
01
00
10
01
00
10
01
00
10
01
00
10
01
00
10
01
00
10
01
00
10
01
00
10
01
00
10
01
00
10
01
00
10
01
00
10
01
00
10
01
00
10
01
00
10
01
00
10
01
00
10
01
00
10
01
00
10
01
00
10
01
00
10
01
00
10
01
00
10
01
00
10
01
00
10
01
00
10
01
00
10
01
00
10
01
00
10
01
00
10
01
00
10
01
00
10
01
00
10
01
00
10
01
00
10
01
00
10
01
00
10
01
00
10
01
00
10
01
00
10
01
00
10
01
00
10
01
00
10
01
00
10
01
00
10
01
00
10
01
00
10
01
00
10
01
00
10
01
00
10
01
00
10
01
00
10
01
00
10
01
00
10
01
00
10
01
00
10
01
00
10
01
00
10
01
00
10
01
00
10
01
00
10
01
00
10
01
00
10
01
00
10
01
00
10
01
00
10
01
00
10
01
00
10
01
00
10
01
00
10
01
00
10
01
00
00
00
00
00
00
00
00
00
00
00
00
00
00
00
00
00
00
00
00
00
00
00
00
00
00
00
00
00
00
00
00
00
00
00
00
00
00
00
00
00
00
00
00
00
00
00
00
00
00
00
00
00
00
00
00
00
00
00
00
00
00
00
00
00
00
00
00
00
00
00
00
00
00
00
00
00
00
00
00
00
00
00
00
00
00
00
00
00
00
00
00
00
00
00
00
00
00
00
00
00
00
00
00
00
00
00
00
00
00
00
00
00
00
00
00
00
00
00
00
00
00
00
00
00
00
00
00
00
00
00
00
00
00
00
00
00
00
00
00
00
00
00
00
00
00
00
00
00
00
00
00
00
00
00
00
00
00
00
00
00
00
00
00
00
00
00
00
00
00
00
00
00
00
00
00
00
00
00
00
00
00
00
00
00
00
00
00
00
00
00
00
00
00
00
00
00
00
00
00
00
00
00
00
00
00
00
00
00
00
00
00
00
00
00
00
00
00
00
00
00
00
00
00
00
00
00
00
00
00
00
00
00
00
00
00
00
00
00
00
00
00
00
00
00
00
00
00
00
00
00
00
00
00
00
00
00
00
00
00
00
00
00
00
00
00
00
00
00
00
00
00
00
00
00
00
00
00
00
00
00
00
00
00
00
00
00
00
00
00
00
00
00
00
00
00
00
00
00
00
00
00
00
00
00
00
00
00
00
00
00
00
00
00
00
00
00
00
00
00
00
00
00
00
00
00
00
00
00
00
00
00
00
00
00
00
00
00
00
00
00
00
00
00
00
00
00
00
00
00
00
00
00
00
00
00
00
00
00
00
00
00
00
00
00
00
00
00
00
00
00
00
00
00
00
00
00
00
00
00
00
00
00
00
00
00
00
00
00
00
00
00
00
00
00
00
00
00
00
00
00
00
00
00
00
00
00
00
00
00
00
00
00
00
00
00
00
00
00
00
00
00
00
00
00
00
00
00
00
00
00
00
00
00
00
00
00
00
00
00
00
00
00
00
00
00
00
00
00
00
00
00
00
00
00
00
00
00
00
00
00
00
00
00
00
00
00
00
00
00
00
00
00
00
00
00
00
00
00
00
00
00
00
00
00
00
00
00
00
00
00
00
00
00
00
00
00
00
00
00
00
00
00
00
00
00
00
00
00
00
00
00
00
00
00
00
00
00
00
00
00
00
00
00
00
00
00
00
00
00
00
00
00
00
00
00
00
00
00
00
00
00
00
00
00
00
00
00
00
00
00
00
00
00
00
00
00
00
00
00
00
00
00
00
00
00
00
00
00
00
00
00
00
00
00
00
00
00
00
00
00
00
00
00
00
00
00
00
00
00
00
00
00
00
00
00
00
00
00
00
00
00
00
00
00
00
00
00
00
00
00
00
00
00
00
00
00
00
00
00
00
00
00
00
00
00
00
00
00
00
00
00
00
00
00
00
00
00
00
00
00
00
00
00
00
00
00
00
00
00
00
00
00
00
00
00
00
00
00
00
00
00
00
00
00
00
00
00
00
00
00
00
00
00
00
00
00
00
00
00
00
00
00
00
00
00
00
00
00
00
00
00
00
00
00
00
00
00
00
00
00
00
00
00
00
00
00
00
00
00
00
00
00
00
00
00
00
00
00
00
00
00
00
00
00
00
00
00
00
00
00
00
00
00
00
00
00
00
00
00
00
00
00
00
00
00
00
00
00
00
00
00
00
00
00
00
00
00
00
00
00
00
00
00
00
00
00
00
00
00
00
00
00
00
00
00
00
00
00
00
00
00
00
00
00
00
00
00
00
00
00
00
00
00
00
00
00
00
00
00
00
00
00
00
00
00
00
00
00
00
00
00
00
00
00
00
00
00
00
00
00
00
00
00
00
00
00
00
00
00
00
00
00
00
00
00
00
00
00
00
00
00
00
00
00
00
00
00
00
00
00
00
00
00
00
00
00
00
00
00
00
00
00
00
00
00
00
00
00
00
00
00
00
00
00
00
00
00
00
00
00
00
00
00
00
00
00
00
00
00
00
00
00
00
00
00
00
00
00
00
00
00
00
00
00
00
00
00
00
00
00
00
00
00
00
00
00
00
00
00
00
00
00
00
00
00
00
00
00
00
00
00
00
00
00
00
00
00
00
00
00
00
00
00
00
00
00
00
00
00
00
00
00
00
00
00
00
00
00
00
00
00
00
00
00
00
00
00
00
00
00
00
00
00
00
00
00
00
00
00
00
00
00
00
00
00
00
00
00
00
00
00
00
00
00
00
00
00
00
00
00
00
00
00
00
00
00
00
00
00
00
00
00
00
00
00
00
00
00
00
00
00
00
00
00
00
00
00
00
00
00
00
00
00
00
00
00
00
00
00
00
00
00
00
00
00
00
00
00
00
00
00
00
00
00
00
00
00
00
00
00
00
00
00
00
00
00
00
00
00
00
00
00
00
00
00
00
00
00
00
00
00
00
00
00
00
00
00
00
00
00
00
00
00
00
00
00
00
00
00
00
00
00
00
00
00
00
00
00
00
00
00
00
00
00
00
00
00
00
00
00
00
00
00
00
00
00
00
00
00
00
00
00
00
00
00
00
00
00
00
00
00
00
00
00
00
00
00
00
00
00
00
00
00
00
00
00
00
00
00
00
00
00
00
00
00
00
00
00
00
00
00
00
00
00
00
00
00
00
00
00
00
00
00
00
00
00
00
00
00
00
00
00
00
00
00
00
00
00
00
00
00
00
00
00
00
00
00
00
00
00
00
00
00
00
00
00
00
00
00
00
00
00
00
00
00
00
00
00
00
00
00
00
00
00
00
00
00
00
00
00
00
00
00
00
00
00
00
00
00
00
00
00
00
00
00
00
00
00
00
00
00
00
00
00
00
00
00
00
00
00
00
00
00
00
00
00
00
00
00
00
00
00
00
00
00
00
00
00
00
00
00
00
00
00
00
00
00
00
00
00
00
00
00
00
00
00
00
00
00
00
00
00
00
00
00
00
00
00
00
00
00
00
00
00
00
00
00
00
00
00
00
00
00
00
00
00
00
00
00
00
00
00
00
00
00
00
00
00
00
00
00
00
00
00
00
00
00
00
00
00
00
00
00
00
00
00
00
00
00
00
00
00
00
00
00
00
00
00
00
00
00
00
00
00
00
00
00
00
00
00
00
00
00
00
00
00
00
00
00
00
00
00
00
00
00
00
00
00
00
00
00
00
00
00
00
00
00
00
00
00
00
00
00
00
00
00
00
00
00
00
00
00
00
00
00
00
00
00
00
00
00
00
00
00
00
00
00
00
00
00
00
00
00
00
00
00
00
00
00
00
00
00
00
00
00
00
00
00
00
00
00
00
00
00
00
00
00
00
00
00
00
00
00
00
00
00
00
00
00
00
00
00
00
00
00
00
00
00
00
00
00
00
00
00
00
00
00
00
00
00
00
00
00
00
00
00
00
00
00
00
00
00
00
00
00
00
00
00
00
00
00
00
00
00
00
00
00
00
00
00
00
00
00
00
00
00
00
00
00
00
00
00
00
00
00
00
00
00
00
00
00
00
00
00
00
00
00
00
00
00
00
00
00
00
00
00
00
00
00
00
00
00
00
00
00
00
00
00
00
00
00
00
00
00
00
00
00
00
00
00
00
00
00
00
00
00
00
00
00
00
00
00
00
00
00
00
00
00
00
00
00
00
00
00
00
00
00
00
00
00
00
00
00
00
00
00
00
00
00
00
00
00
00
00
00
00
00
00
00
00
00
00
00
00
00
00
00
00
00
00
00
00
00
00
